/**
  ******************************************************************************
  * @file    network_data_params.c
  * @author  AST Embedded Analytics Research Platform
  * @date    Sun Aug 13 07:35:00 2023
  * @brief   AI Tool Automatic Code Generator for Embedded NN computing
  ******************************************************************************
  * Copyright (c) 2023 STMicroelectronics.
  * All rights reserved.
  *
  * This software is licensed under terms that can be found in the LICENSE file
  * in the root directory of this software component.
  * If no LICENSE file comes with this software, it is provided AS-IS.
  ******************************************************************************
  */

#include "network_data_params.h"


/**  Activations Section  ****************************************************/
ai_handle g_network_activations_table[1 + 2] = {
  AI_HANDLE_PTR(AI_MAGIC_MARKER),
  AI_HANDLE_PTR(NULL),
  AI_HANDLE_PTR(AI_MAGIC_MARKER),
};




/**  Weights Section  ********************************************************/
AI_ALIGNED(32)
const ai_u64 s_network_weights_array_u64[17413] = {
  0x3d13a557bd56e484U, 0xbbee8d8bbda9c582U, 0xbdc8954bbd6b49caU, 0xbce6bbe03c02a249U,
  0xbb0757efbd11c5fcU, 0xbca3fcddbbcfeb3aU, 0xbd153ebbbdadf890U, 0xbd2cb1903dd1d214U,
  0xba69d026bc1672b6U, 0x3dbfc2e2bda9c10eU, 0xbb7a4e413d3c61f2U, 0xbe20ce60bdc3fce2U,
  0x3bf30ae0bdfbc3feU, 0xbc1793a43c90a434U, 0xbbf9c03ebde767beU, 0xbd531a67bbd82446U,
  0x3e364cc1be167d01U, 0xbe66821e3ddf8380U, 0x3c48a524bc8ba6baU, 0x3e431a1abe4ea08cU,
  0x3e27995f3c968381U, 0x3e045d34bda6c5afU, 0xbbf58dd93cc6828bU, 0x3d9dd40ebd769f91U,
  0xbd20423ebc30d683U, 0x3e7cc4313d5a02f6U, 0x3e04670abc4a7129U, 0xbc882f143db1ca8aU,
  0x3cc6a6f73d90c369U, 0xbd5c26e9be89c985U, 0xbe85e1f5bd17a105U, 0x3de60577bd6077a9U,
  0x3e58b6a3bcd26fe7U, 0xbdaea3133de2e2d5U, 0x3e0a1bad3dcca0e5U, 0x3e1160743c240f29U,
  0x3eb97581bd841f55U, 0x3da83195bd0caccfU, 0xbc689e6b3e277940U, 0x3e04a07c3db1bd06U,
  0x3d617bdd3d79bfaeU, 0x3ecba9513dfe38ccU, 0x3df57cc4bdfe0796U, 0x3d99a8dd3e0b219cU,
  0x3d9c19263de21728U, 0xbdb4144c3d2404d1U, 0xbdac38723db44c83U, 0x3d1c76f3ba947872U,
  0x3ead04c8bdc1e204U, 0xbe138842bd56b2acU, 0xbc739351be2f9b11U, 0x3e600abebcd91ff5U,
  0xbd8a21f9be5d5165U, 0xbdb5ee72be24e887U, 0xbd5b5105bd3414d6U, 0x3e257ce0bd5d3e6cU,
  0x3c873d67bdc7a03cU, 0x3ced5f363de2cfb0U, 0xbd4dc18dbea90e4dU, 0x3dafb6ccbe0ceb5fU,
  0xbd8aedfa3dbfa6f9U, 0xbe878397be1bdc76U, 0x3d3e2f803c07824fU, 0xbd936ca3bde1893dU,
  0x3d7b453f3bf975ceU, 0xbb058d53bb041242U, 0x3d861aac3e09da96U, 0x3e031f573de5d132U,
  0x3d56f4bfbd2eb9d8U, 0x3e25b7fc3df4e4adU, 0x3b2aad6d3d2fa93bU, 0xbcd8b39f3e03fd2dU,
  0x3e29934dbdc0c21dU, 0xbd13f4553d8fb04eU, 0x3d3b5e0ebdcb1a68U, 0x3e1e2e1cbc82706eU,
  0x3cf15ba33da6a0b8U, 0x3cfc77403dfd74a0U, 0xbc3fbb0abcd989ddU, 0x3daea84d3e2cde7eU,
  0x3e631365bdca04d0U, 0x3dd6c8d63d131dfbU, 0xbd574462bd79c944U, 0x3e1c161c3d12b2d4U,
  0x3e274a4d3ce93f2cU, 0xbcde3bfabe00d6c5U, 0x3c93b7303cedc9f8U, 0x3e26fd8d3d1705bdU,
  0x3df082f7bd68f764U, 0x3e527225bc8a1ad8U, 0xbda4b9e1becaf3eaU, 0xbd42bde63cfcbbdfU,
  0xbdf5b0c13d8da528U, 0xbe3571483d63b1fcU, 0x3de28c90bb1ece1eU, 0xbd5b9e0e3b1c2182U,
  0x3e82641abd902388U, 0xbdf191183ce5ce03U, 0xbe070fcbbe017035U, 0x3dd3aca9be16586bU,
  0x3b69c0753cc0fca6U, 0xbd8ba221be88f2e1U, 0xbd5be840bc0690b1U, 0x3d781009be83fd25U,
  0xbeb958e5be295705U, 0x3e42482f3d8d4e9aU, 0xbd81412abe681113U, 0xbd914652be2d2cb2U,
  0xbe61b8ffbdbb5362U, 0xbe9e3e59bde5525dU, 0x3bc2a017bdf16942U, 0xbe0d59fdbe87b313U,
  0xbe8218ec3e18815bU, 0x3e1a9066be32cefdU, 0xbe22a1c43daf556aU, 0xbea5eedd3e27f4f9U,
  0xbd8efc4fbe27b538U, 0xbe9365a3bec130a3U, 0xbe2781b9bd0a5548U, 0xbe3729dc3ead11dfU,
  0x3e2a73edbe02cc65U, 0xbde9681abeae2d49U, 0xbe655312be489297U, 0xbdb96cf93b9e2aacU,
  0xbf09eef7be18d6e6U, 0xbe9119213e14dc96U, 0x3db6ae97bbc11bfcU, 0xbdfbb6c63e5e9812U,
  0x3e1745363cfae89aU, 0x3df7b306bdc8a91eU, 0xbdfc2e30be0ec9c3U, 0xbe6465ddbd916a1fU,
  0xbe6b69f3be2da5bfU, 0xbdd74404be8f2f4fU, 0xbdcf9df6be2c66ebU, 0xbd9e21bcbcdaeb0eU,
  0xbd94a904be33fd38U, 0x3db444f93bbd6967U, 0xbe557b3bbdb8d53bU, 0xbe3ebbc5be093788U,
  0xbe9d4db2be572078U, 0xbe5bfc39bd3f4f78U, 0x3e13c887be3a6b0bU, 0xbe1bdb77be276a04U,
  0xbd8fb169ba662eddU, 0xbe44fb3ebdf7cc4eU, 0xbd44d17cbe480381U, 0xbedde0eebe50499aU,
  0x3e145b2dbc9694bcU, 0x3e1b74c2be00613cU, 0xbd3de985bd8392a9U, 0xbe1886bebe8cc8b7U,
  0xbe59690b3c6fad89U, 0x3e6709cebe604d35U, 0x3df7514dbd8e5cb3U, 0xbd8056d8bd9819d4U,
  0xbed0c0ba3d460274U, 0x3d5592fcbe20a2c9U, 0xbd0043643d7e8216U, 0x3ca5b566bea27d95U,
  0xbc32cc26bd8e0dbbU, 0xbdec15343d6352f4U, 0x3becc1cd3ce5e93aU, 0xbd026c54bd382e22U,
  0xbd0ca536bd886154U, 0x3e0aeba1bda03855U, 0xbc19f39c3dfa5b35U, 0x3de268d5bd8f697aU,
  0xbdbcca7a3d0b03e4U, 0xbca42dc6be190f67U, 0x3df3b5cdbc079438U, 0x3d189d923dc69146U,
  0xbe0ef8c73dc26b29U, 0x3d8cfc7bbdbabfedU, 0xbdbaf7de3b27bb38U, 0x3cc1c4bebd247162U,
  0xbbd1145ebe10184bU, 0xbe75a7503d97a974U, 0x3d95d3cdbe3bdb97U, 0x3e2f452cbe49bb38U,
  0x3d6ad4e63dbf5d79U, 0x3d9b912d3e23226fU, 0x3de6d908bd9001daU, 0x3e0d5f99be9fd522U,
  0xbea46cfbbc8a8434U, 0xbd23af2b3d05a8c8U, 0xbd87506c3d9fdb89U, 0x3caac2783d7523f5U,
  0x3cfaa098bcc7172cU, 0x3da63e10beb31ac2U, 0xbe0da8a13dc1a375U, 0xbc87a4eebdc79aecU,
  0x3e2648983d78b750U, 0x3e8d7567bcf475d8U, 0xbd1ed927be18cc8cU, 0x3c3b80873df22297U,
  0xbd4de6eabcb43028U, 0x3de0df063ca1dd88U, 0x3e871e1dbd9858caU, 0x3dd8d635beaad634U,
  0xbe8f02273d28b50aU, 0x3c4df1abbd09a3d8U, 0xbdd26e2e3de09895U, 0xbd312960bd98262eU,
  0xbd927968bcf8326eU, 0x3e30c7943e4be23aU, 0x3eca757a3e1f33a3U, 0x3cd02b9f3e69b4beU,
  0xbe258e99bd9d0ef2U, 0xbcbe09cdbdcf487aU, 0xbc8dcb6abd2df837U, 0xbc367e81bc4cf917U,
  0xbd26c280bbc16971U, 0xbd27870abdccf67eU, 0x3d0e6ac1bd7c9680U, 0xbd861a03bc52e882U,
  0x3d136a04bdccdd1dU, 0xbe6377b9bd3ad2beU, 0xbbbe0b1dbe08a24dU, 0x3d741a4e3d45d0aeU,
  0xbdac8b86bce20ab0U, 0xbdaee05fbd3d16f3U, 0xbe4ed881bd8e9837U, 0x3d3403ebba14b00aU,
  0xbea4ed3c3d5854ceU, 0xbe47df863dda7d0fU, 0x3d930ac23df2f6c7U, 0x3cafd94bbd7d7e59U,
  0x3e1a66a5bdef5588U, 0xbca069b23cdf0c4dU, 0xbdc437d83b23f7c2U, 0x3bbd685d3d3c9f6bU,
  0x3d2282bfbe1a30f6U, 0xbb319499be11e3e0U, 0x3d8df5a3bea54439U, 0xbcd20bf23c532a2bU,
  0xbe398ef13cdcbea1U, 0xbe780f43be1696afU, 0xbec42138bca7fc91U, 0xbd0aa944bd2a18f2U,
  0xbde1f849bd8d4ca9U, 0xbe00a8663e110eb0U, 0x3cba3e66bdd67cb3U, 0x3e4c8172be7db297U,
  0x3c0f3c1a3e0d6dbcU, 0xbdd337a03d55326fU, 0x3d562e1c3cb5c059U, 0x3d6e2de1be294cb7U,
  0x3d13dcf03d455a70U, 0xbe5484503de101c5U, 0xbdf062533da8b5d0U, 0x3db35f533cf6e348U,
  0x3e24193fbd1068a0U, 0x3c0cb4b6be137685U, 0xbe4413c2bd00e577U, 0x3b77640dbd36f26fU,
  0xbd59d4d33e096c9cU, 0x3df57f61bdc2f18cU, 0xbc5d91e53da9d1ebU, 0xbe8d13273e08f6aeU,
  0xbd9cd863bd846955U, 0xbd8bf8e3be030710U, 0xbe1b93f2bc255fe2U, 0xbde0cfab3d47ab25U,
  0xbd0de769be2b2a60U, 0xbe2f11bfbe190ab5U, 0xbd99af973bc31f22U, 0xbd96fd47bd236f14U,
  0xbeb61d23bd604c0cU, 0xbd928b643d9bb13dU, 0x3e1ce7c43c489a3aU, 0xbd5bbabe3dd3b460U,
  0xbe9ffac33d49707dU, 0x3d597362bc18c77cU, 0xbd91c6843e1426f7U, 0xbbdf32ac3da649c9U,
  0x3d3004e3bc32e36bU, 0x3905cd6e3b698d21U, 0xbe0d5d753d1c2b55U, 0xbe5860fc3da40e6dU,
  0x3d216931bd98fc51U, 0x3cdb6575bdbb07e3U, 0x3daae708be4bccecU, 0x3da5b9f43dcb0a58U,
  0xbe0680933c67199bU, 0xbe1802d03d331091U, 0xbe58c08dbd89925dU, 0xbdc301cbbc95ac6eU,
  0xbeab23613d346155U, 0xbcab191a3d62e31bU, 0x3d5aee5b3df8b15bU, 0x3e380e823a121eeeU,
  0x3e1b61673dc14ba7U, 0xbcfdb5223ea03ba4U, 0x3c24c872bc6a81a0U, 0xbe16c2b53df7b694U,
  0x3e114bd23e05803aU, 0xbdc8e7983dce14bdU, 0x3d88975c3db269a7U, 0x3deb41e13dd1fe8bU,
  0x3e3f2a043c66910cU, 0x3d013b83bd5eb2e7U, 0xbe64d597bda964d7U, 0xbd556c153e07e0abU,
  0x3d833a2c3dd2c184U, 0xbe055a07bddcce3eU, 0x3cc0ba29b9a8efd8U, 0x3de25840be245b15U,
  0x3dd9805bbcaa5e8fU, 0xbc1c0649bd210655U, 0xbd2750413c23a20eU, 0x3bc159e7be16bef0U,
  0xbcf67e0dbe037918U, 0x3ca044573ddb5b20U, 0x3c3840a2bde2085aU, 0xbcdf7a80bc641ffaU,
  0xbde9a8acbcf43c61U, 0xbcac71a1bdd4af7fU, 0xbd3ab20e3d1bff45U, 0x3c9cb31abdb0079bU,
  0x3dc55a693bee10fbU, 0xbde044f53dbaa98dU, 0xbd4456efbe18d832U, 0xbd80cc1dbdc06b47U,
  0x3d85f4363ca0168eU, 0x3c1b6180be3bd10dU, 0xbcc9c9e73cf8426eU, 0x3dcd9dcbbd5f926aU,
  0xbd6575efbdca5af7U, 0x3e3a2b9ebcf0aaa1U, 0xbd92ff09be222101U, 0x3cd586fb3d53f9fcU,
  0xbdc55bab3cb09cb2U, 0xbe271035be2754d4U, 0xbd8407463d5843bcU, 0x3d8d5d96be321b0aU,
  0xbd5b28a8bd50a44cU, 0xbc6f3abf3deb59f8U, 0x3daf6d82bc860cfcU, 0xbc900881ba9104caU,
  0xbdac2b483d83b37bU, 0x3de5f5a03e102627U, 0xbdd7803c3d937137U, 0x3cd43010bd5ddf25U,
  0xbd3e48443d349634U, 0xbd97d3e23d3c9bf8U, 0x3d0537673e512ebdU, 0x3c991ddebd29a50bU,
  0xbd106ac0bcdbbc41U, 0xbd539f17bd3a09b0U, 0xbd33428ebd8bc9f2U, 0xbab65cb9bde1c332U,
  0xbe54b7aa3e15fe80U, 0xbcd7df1ebe151876U, 0xbd68e3393e3a000dU, 0xbdd625223c865c07U,
  0x3e19fc5ebe72ea35U, 0xbdc447f9bdb6ce99U, 0xbe65e264bd8eb1f5U, 0xbe6803ea3d7b695dU,
  0x3d13156ebe5dec06U, 0x3ded1ba3bdecc64aU, 0xbcdd0299be8d7119U, 0x3d2bf9f83e370683U,
  0xbe854e03bdbab854U, 0xbe9a93733dbaa8e4U, 0xbe1ae8c3be0de042U, 0xbd7b09e33da58bd8U,
  0xbe39e3b03d92c55dU, 0x3cd93beabd035f76U, 0x3ddbcfe03e1e0870U, 0x3de6cabb3dbed55fU,
  0x3cfb00a7bd430821U, 0x3cd6d72d3db0cfedU, 0xbda56ee2bda5d03eU, 0xbdd6b6d63e1b4d30U,
  0x3dd0fddcbd7a880fU, 0x3d0d43293decbd49U, 0x3df32a41bc475dd0U, 0x3e0017783d48a41eU,
  0xbbf117863d80ed38U, 0x3c5904603d9ac2e7U, 0xbc84edf9bd2b9002U, 0x3d87d3f83e08c336U,
  0xbe99acd93cb75c69U, 0x3e524f2ebca741deU, 0x3db6c9163d305740U, 0xbe08d6603e102f26U,
  0xbd069d993d368be2U, 0x3dd537403d351492U, 0x3d64ed523d6a7286U, 0xbcdf79843e57441cU,
  0x3e028f673dbb4455U, 0xbce53d1ebdf3c94cU, 0x3e0a2ab63d874842U, 0xbd3f04983d46f703U,
  0xbe27f5193c686a70U, 0x3e03438e3dc2dacaU, 0xbc6e76b2bc2706eaU, 0x3cc5c8da3e351b23U,
  0xbe12d05abdb47108U, 0xbdddc5eebd4ae262U, 0xbe75fde6bd78203cU, 0x3e00c8053d3959faU,
  0xbd1c587a3c3e5a69U, 0xbe0a90d33e29e6afU, 0xbd2286e6be2a3a7aU, 0xbc8baf043d55e65fU,
  0x3ddf5cfb3da81e1fU, 0x3cc5e1113d4eeaacU, 0xbe25a0943e556b56U, 0xbde85968bdeb6d71U,
  0x3ea81743be65b339U, 0x3de5bc693c5d6d60U, 0xbe0a393ebe0f0168U, 0xbe324638bd7a924eU,
  0xbe83c00d3d546f73U, 0x3e2f4d34be1194f8U, 0xbd7aa1af3ce5adc0U, 0xbe0733113d9c8d00U,
  0xbd6ceac2bc80e79dU, 0xbddeb77cbcce997cU, 0xbe90c462bd835335U, 0xbe044f403e546186U,
  0x3e76e437bd1db8a2U, 0xbce69ff3bdfdd6afU, 0xbd48c5b63d5423c7U, 0x3c766e46bc854f70U,
  0x3e26e460bdde8becU, 0xbdab9b713e05c72aU, 0xbdf13b3ebd551a4cU, 0xbe0711393d4314bfU,
  0xbe183a3abdb123a1U, 0x3e2171d6be2cd5c9U, 0xbdb03c2b3d209964U, 0xbe9979e13e05a41aU,
  0xbe429218be099066U, 0xbe5590dabe9e81a4U, 0xbdd02a12bda3575bU, 0xbdd728d83e6e6076U,
  0x3e45a079bdfe29deU, 0xbe59c0efbe21f7fbU, 0xbe37b47e3ddaf212U, 0xbe38d482bcf7391bU,
  0xbde3a907bdda76eaU, 0xbd1548af3e1dd66dU, 0x3df97526bd996769U, 0xbe1426ea3d9771c1U,
  0x3deefc81bd422dfcU, 0x3c94cf8e3c2c2a28U, 0x3e0c81f13e405db0U, 0x3dac6b3ebbef2f6aU,
  0x3e41c9363d3f2a77U, 0x3de955213d715a29U, 0x3ddb3aa33de4f2feU, 0xbcac02a43e0950b3U,
  0x3e2063db3ce50064U, 0x3e4da156bd318a6eU, 0x3e246986be0dc672U, 0x3e1d440d3e1f40faU,
  0x3d1a00593e34b9faU, 0xbd0491e7bd09cd44U, 0xbd5fe9ff3dd2a1c5U, 0x3e1a242d3d1cdc93U,
  0x3e0b6cbfbe5a6823U, 0xbe018389bd72f119U, 0x3d3b97febe69273cU, 0x3d84e282be210bacU,
  0xbe1c6557bd0d30f9U, 0xbe3f0a8bbdcb0339U, 0x3c802db7bd16e09aU, 0x3e045989be1e51ebU,
  0xbe074051bdced7eaU, 0x3d0b33533dcba847U, 0xbbfed283bee7fed5U, 0xbcb91ab8be1d2b2bU,
  0xbdb4292f3c820010U, 0xbe3c24c4bd19eeecU, 0x3cbb78dcbd883832U, 0xbdd9b1b6bdc04475U,
  0x3e96918e3bd3ee4fU, 0xbe13ead7bca68229U, 0xbdb09ac3be329e27U, 0xbe2d2b5fbe4458e4U,
  0xbdb90f61bd9ed260U, 0xbdd400febe2d4e4fU, 0xbe4c74f6bdc89fb7U, 0x3cf4ab32be841caaU,
  0xbec4d12fbe0873a7U, 0x3cea697c3cea8cfdU, 0xbe25a2793dc043ccU, 0xbe08a2c0be84d07aU,
  0xbed399d8be01b4a0U, 0xbe83631dbe029f3cU, 0x3d6de9fdbe91b5d5U, 0xbe3aa641be9b8f7fU,
  0x3e4516f73c854febU, 0x3e086fa63ccd0debU, 0x3cdbfc093e03b8bbU, 0x3c2bdaa53db0582dU,
  0x3d525ae7bd20bc19U, 0x3d5577c2bb5838c7U, 0x3e0c95d2bcf13a32U, 0x3c895ab83ddeaf2bU,
  0x3e1bff153d3dfe3aU, 0xbd7d8c75bdc297e3U, 0xbde5388dbe629caeU, 0xbcdfd6783d407fb9U,
  0xbdb5f09cbcf2a4c6U, 0xbd5512a63e34c65aU, 0x3e2b6911bc6e76a8U, 0xbd8106333e07b973U,
  0x3e0ff4033e0ae839U, 0x3d283f82be267db8U, 0xbcc00f4b3cbca20eU, 0xbdc64f5d3d3eaee2U,
  0xbe036c6cbd559dc8U, 0xbdf7b976be6cc653U, 0xbe0442febe418360U, 0x3d5a143fbd99e6e8U,
  0xbe40b14cbe4542bdU, 0x3e1b70a13c3c7e11U, 0xbe48cbc6bccae565U, 0xbe0826f9bd6695f1U,
  0xbe9aa680bdfa4830U, 0xbe3163f93cf5bddcU, 0x3e3138fcbd7404d8U, 0xbe17d960be56c337U,
  0x3a069aeabd4140c7U, 0xbe91d31ebc99fb0eU, 0x3d47adeabe88ba85U, 0xbf072925bec9ec42U,
  0xbcb4ed733dd8c9caU, 0x3e47dae0bcb691d6U, 0xbd7c1643bcbc4587U, 0xbe90e062be428f03U,
  0xbe379de53da9a00eU, 0x3de32f13be811860U, 0x3e1d80d53e580d8eU, 0xbd3d8551bd333e9cU,
  0xbe605b683d906a46U, 0x3db616adbe37599aU, 0xbe0f048cbaaf81d0U, 0x3d997500be6eede3U,
  0xb9b140233e9705fcU, 0x3e5696e6be6473d1U, 0xbd2cedca3d9dc41fU, 0xbe69b7903e4d9b36U,
  0xbe4f85d9be45bf50U, 0xbe808045be7c092cU, 0xbe68b3cbbd931465U, 0xbe04f4a9bdd87cb5U,
  0xbe13721fbe3f4d20U, 0x3d961336be0d8939U, 0xbe441a5bbddd4779U, 0xbd4fb70abdb70c61U,
  0xbeb671c7be5c3171U, 0xbe638b123e1e8b6eU, 0x3e6bd3c4be276715U, 0xbe4e47b7be4cfb59U,
  0xbdefe4e3bd4b2c2aU, 0xbe866359bd14300cU, 0xbdb3719cbe9d0ff7U, 0xbed5f74abe61453bU,
  0x3e1c23763d8dfbadU, 0x3a9442d03b6d130dU, 0xbd553b1abe194709U, 0xbe900e39be81c275U,
  0xbe55cce63dfbfeaaU, 0x3e4c96ddbe74d9c4U, 0x3dd3e7803e1d3abeU, 0xbccb44b2bc7e5266U,
  0xbe62e8003d1ddd46U, 0x3cb561fdbe3092feU, 0xbe6da62fbc8e3bc7U, 0xbcd503fdbe779f39U,
  0xbde5a3eabe03b0aaU, 0xbd8cd1453cb5442fU, 0x3d32744bbd96fa0dU, 0xbea8f79fbe3f9149U,
  0x3d3654e83cddbc20U, 0x3d8f97abbdefed9bU, 0x3e3bbac93d99ea95U, 0x3d2c3448beb289a5U,
  0xbea51dbc3d994879U, 0x3d75daf4be2e54c5U, 0x3dbd818f3d95b3b0U, 0xbd1706d83c581483U,
  0xbeaa72533ce0a260U, 0x3d9494f9bd8a3863U, 0xbd6132fb3e18b629U, 0x3e251385be623c50U,
  0x3a4949ebbdab4325U, 0xbe312b253cd52660U, 0x3d3c499e3dd9c6e4U, 0x3db46c36be14cb07U,
  0x3d59090e3d5bdc0aU, 0x3c88a4863db8bdecU, 0x3e181e49bcdbf9dcU, 0x3e204971be706a37U,
  0x3d012c193d0f975dU, 0x3b42ce613d8ab6bdU, 0xbd896bbd3d92913dU, 0x3d9c19cd3d97e925U,
  0xbcc1d86e3d950b87U, 0x3e07d525be238b00U, 0x3d3c26383dbb3b47U, 0x3ca38c633d7b9798U,
  0x3dbcf4e7bda1901bU, 0x3d850ffb3cc8a814U, 0xbd9a6753bdabea6bU, 0x3cbc05353bf2d98dU,
  0x3ce808a43d0a9240U, 0x3dab3c10bd102759U, 0xbce98469bdabf85bU, 0x3d8fb194be798421U,
  0xbd6e05b0bca271a6U, 0xbdc6c7fd3e093b2dU, 0xbd0d816ebcf260d4U, 0xbc105db03c2620bbU,
  0xbcc31c35bad61d08U, 0xbdfc5312be0e2f27U, 0x3e5264b73cae849cU, 0x3d3983673d3cbaefU,
  0x3c48eb7f3e39d753U, 0x3ca371d13dbed4f9U, 0xbd838a203d60a802U, 0x3da18bbfbd36a0b1U,
  0x3dd3bd18bda39a1eU, 0x3db61a4cbe223db0U, 0xbc0f4202bdc12ffcU, 0x3d1035cebea59d7bU,
  0xbca03de1bd1c5a8cU, 0xbde896913deb9318U, 0xbda0729cbd83c236U, 0xbb531e2f3dc69d87U,
  0xbd5e6706bda6d088U, 0xbd88b561bd97556eU, 0x3e0b9e4a3d1012bbU, 0xbc4fa1723e009edfU,
  0xbe9d58d83d345d9eU, 0x3df1bffe3a249084U, 0x3d8468163e15db07U, 0x3d989bb53d5c5f6eU,
  0xbc53b55abcd7423cU, 0xbdcf6cae3deac612U, 0xbc95dfafbb275267U, 0xbdce071c3e2a959aU,
  0x3e5882623d12edebU, 0xbe6309433d9e8b8bU, 0xbc83cd303d3c727fU, 0x3d7c01883d496c30U,
  0x3d4baf043d7e2146U, 0xbb5e9b8c3cef2e55U, 0xbe134283bd578162U, 0x3cbe17b73e48df5cU,
  0xbeaa32bd3ab62ab0U, 0xbca7545c3b059c95U, 0x3ca58902bcd57076U, 0x3de000703d1bba73U,
  0xbdff9fe33d388b35U, 0xbdec9af93e673623U, 0xbdb8e8e7bd43c5f2U, 0xbdf975453e3d86dcU,
  0x3e06ad313deb2cfdU, 0xbed8a8bebd3cfb43U, 0x3bd5d1e63ddb7f1eU, 0xbc80cffdbd10c786U,
  0x3e17944cbda8c0edU, 0x3dd55d793cb11881U, 0xbe1d9362bd18711fU, 0xbb708f413dc2e532U,
  0xbe031476bd649968U, 0x3e0999e13d8740c7U, 0x3d9c6b4d3c1ad87eU, 0xbbe249ff3d5ac226U,
  0xbdee9c5b3d9c5204U, 0x3dd9011f3d88e2a9U, 0x3d7855e1bdd06f20U, 0xbd93fd223dbcc691U,
  0x3dc8e950bd8bfd55U, 0xbe5c7a00bcbe2534U, 0xbc5e2de63db6f605U, 0xbc4ff2953d7963eeU,
  0x3dccf269bd0eb8e4U, 0x3d9cd66a3de0ebb5U, 0xbbc11ab33da2200bU, 0x3da241573e6d62b0U,
  0xbd7135b73bec3351U, 0x3bcbfb8abd41c9eeU, 0xbd21457ebd5b32c4U, 0xbe1f38333d93d253U,
  0xbd87b171bdd1e69dU, 0xbd9c522cbdd06ff5U, 0x3c7be61cbc834565U, 0x3dcff4073c70f2d6U,
  0x3cb8c189be0371a4U, 0xbe00a7c7bd93bf9aU, 0xbda51dc7bd19e09eU, 0xbcbec5e13c46eadcU,
  0xbe1ad49ebd8191c4U, 0xbd55f4983c816defU, 0x3e3070723a05d7fdU, 0xbd811391bb56c3abU,
  0xbe83e3093e26d108U, 0x3e3c0d103d26dd7aU, 0xbcaca3b73e0ce6a9U, 0xbcd62ac73e4c026cU,
  0x3b2d558f3d61b536U, 0xbde496a33cbf2e6fU, 0x3b500b05bdfb2f99U, 0x3cbfc5463e360aafU,
  0x3dc862b83daf70e0U, 0xbe3e1af1bd2e4fd1U, 0xbdecde6f3d28e1e3U, 0x3d8a325d3adc70eeU,
  0xbd704565bdd08b27U, 0x3c32f79f3da55da7U, 0x3d9fc03b3d8f36caU, 0xbd8792e63e426451U,
  0xbdb6db333caa56d2U, 0x3d9f2606bd4e4fdcU, 0xbda9ff663de3e0c5U, 0xbe0cf2db3dda96dbU,
  0xbd9060833d674441U, 0x3d8591143d305d28U, 0xbad45aadbda7a692U, 0xbd5d6c493c1235f3U,
  0xbd0089683b57a742U, 0xbea82b30bcbbce0cU, 0xbb95d46f3db2c5a6U, 0xbe0e7a223d891352U,
  0xbca25c1fbe1763b6U, 0xbc63bcc53e2b49aaU, 0x3cca831b3d8e730eU, 0xbc8611203d1d6237U,
  0xbdd83fcebd067280U, 0x3d3e0cc73e057959U, 0x3d9d8692bd1160c2U, 0x3e853c0d3c188d6eU,
  0x3b2c884d3da22dd3U, 0x3d271e963d381404U, 0x3de255ba3d7abc02U, 0x3df5723c3c812c81U,
  0x3e0f1b65bc46dc97U, 0xbdc2f7e83e02787bU, 0x3a826f6dbcdf6f4aU, 0x3e25c250bca1d55eU,
  0x3e3ac4d93d8d1264U, 0x3a9d45943d51c4f1U, 0xbe482319bcb06ae1U, 0x3cab1bf63e2baa93U,
  0x3b3db292be06bd39U, 0xbcadb3f93df6952cU, 0x3d4095ddbd526437U, 0x3e35354dbd25b605U,
  0xbd8012793d519f7aU, 0xbd42184f3d2bdeb5U, 0x3d2e2cedbd850b44U, 0x3dd6cab13cd5d3f8U,
  0x3dbe3ada3dfbf7fdU, 0xbe788ba23e296a50U, 0xbc96de1c3d68e03dU, 0x3e263a223d498524U,
  0x3e188aa93d72becaU, 0x3dc8da3d3cc5750eU, 0xbd1a9214bcd2dd47U, 0xbcdd3e55bbb03354U,
  0x3d8914313bcc5a16U, 0x3db7b636bc8fb129U, 0xbd86629fbdaf0218U, 0xbe15579ebd42d1f9U,
  0xbe3f22323e167ef3U, 0x3e0192abbc8cc44aU, 0x3dfbc1da3d64c207U, 0x3db68f773cdbeacdU,
  0xbe039460bacbb2a4U, 0xbd98a5213a043c19U, 0x3dc62b9d3e460605U, 0x3cc90ea9baa6f2b4U,
  0x3da6176cbd640a41U, 0x3e5a334dbd0c7893U, 0x3e4fe9a6bc188bd6U, 0x3e1bd743bcef5d8bU,
  0xbe1569cc3de1321bU, 0xbcae02093d314ce2U, 0x3dda722e3d990f0bU, 0x3d923ff3bb3fe846U,
  0x3dd77df6be05fab9U, 0xbdc097a439869d26U, 0xbccdd6543dfbfdb7U, 0xbd41d928bcd6dc7eU,
  0x3e3af0f2be022903U, 0xbcdeecba3cc606ecU, 0x3d1ac02bbe9e5530U, 0x3caacd483da2fc29U,
  0xbe78c9613e0bb8baU, 0xbe7ea5fb3d6eceabU, 0xbdb251013d9f46d9U, 0x3ca175fabd526d70U,
  0xbe9d73b03c90a6e6U, 0x3d9494953d9ab605U, 0x3dbfff7f3d1face4U, 0xbc687cad3da091e1U,
  0x3c0025453dc2c7fbU, 0xbd5640053d86a0daU, 0xbd14e1cf3d4e0c2dU, 0xbd9c068ebd16f62dU,
  0x3d9fc8173ce60b70U, 0xbe5e06893d63bb07U, 0x3c3b58faba7021dcU, 0x3cc99b253e12de82U,
  0xbe154df03c182e04U, 0xbde24803bd41b9a3U, 0xbe00ced5bc70f3cbU, 0xbcdcc7c03d9cedb1U,
  0xbd80bc693d459ba9U, 0x3dd367243d068a8fU, 0x3dc62fbd3d3354d8U, 0xbe1423a3bd304438U,
  0x3a0c9cc83cbd9bc0U, 0x3d0754ab3cb59d48U, 0x3d41ee82bba1dc0dU, 0x3d31a8e7bc59ba7eU,
  0xbbe1ed8bbdbfa63aU, 0xbe9ca7dc3cd6fe06U, 0x3d7d4e29be2fb22dU, 0x3d1477193bf0c6a7U,
  0xbe74d6a33d7b9c41U, 0xbd31a05a3daa5ea0U, 0xbd4961cc3d4b2a97U, 0xbcf536ce3d2b5223U,
  0xbd9fd3dfbdf37ddaU, 0xbdbe9dc4be06cdd0U, 0xbd9d5ed4bd050c39U, 0xbcc7c2363ca38513U,
  0x3dc31399be1bc902U, 0xbbef75f8bdf0ca5aU, 0xbd79959bbdd0c215U, 0xbdc2d6e23cee47aaU,
  0x3d9e7fe8bd3d2522U, 0x3d7e7b5e3c871f57U, 0xbde19bd0be5909c8U, 0xbe0e45d53dbb1e6bU,
  0xbc81795ebdce9f30U, 0xbe0b7f5f3d916937U, 0xbd3cde99bb1b61adU, 0xbe22b138bdf67c44U,
  0xbd5fc135bbefbbb6U, 0x3e13d092bd95c4d2U, 0xbdb3af843d22be6eU, 0xbda392253d3dd3d3U,
  0xbe06dca2bdd3af50U, 0xbe329794bde113f3U, 0xbd82ee78bd04365fU, 0xbc34c94d3dde9d49U,
  0x3db5b903bdc8ec29U, 0xbe56a934be02f9d1U, 0xbd80e0b8be25e765U, 0x3bca7fd5bd144620U,
  0xbe8a206bbe02c674U, 0xbd3261113dda17acU, 0x3d6bd57bbd2e7155U, 0xbdc06fa43dc9794bU,
  0xbd8a9747bcaad2f3U, 0x3e7afa7fbda17b3eU, 0xbdcbb6c1bc211b07U, 0xbe5e1aff3de5ddefU,
  0xbda2d2b1be0207c0U, 0xbd2a717cbe9024e1U, 0xbdb5682cbe098fdeU, 0xbd2764b63dad30ffU,
  0x3dcc9e97bde473d1U, 0xbdf9b38cbdfeab03U, 0xbe27ccfebe1ae3dcU, 0xbcae9b543d060d37U,
  0xbe833ab1bde13b18U, 0xba9e8f153e2aecf0U, 0x3e198d2fbc387c64U, 0xbd50e1533d6e667bU,
  0xbedc999e3bcb024aU, 0x3d034755be13559cU, 0xbdd188cabdaec4c2U, 0xbe941a7a3d9b6358U,
  0xbd33c96bbe3ffaf7U, 0xbde03405bc3798f1U, 0xbe281b23be915784U, 0xbed121633d94cb40U,
  0x3c590a8abe128543U, 0xbdbc68c0bec367e3U, 0xbe3787593d91502bU, 0xbe4b866ebe19b548U,
  0xbbdc503ebe3e6834U, 0xbe2f00303dc6d783U, 0xbe19390abe6f48fbU, 0xbe7bfd9b3dedb216U,
  0xbe71fa2ebd6813abU, 0x3d52a93abd502e07U, 0x3c21ec083ccea282U, 0xbd6dd1e23e05a385U,
  0xbb5c07dfbce4650fU, 0xbc9fda23bd7a3430U, 0xbe7a7525bde99924U, 0xbe73721f3e78bd30U,
  0x3e3c7218bda454e9U, 0xbe1f58a6be47c6f8U, 0xbd30a94d3e003539U, 0x3c62201e3b8e06b0U,
  0x3dd23902bdc5975fU, 0xbd2bb61b3e7494f7U, 0xbd01381fbe044d43U, 0xbd92790c3e33cb24U,
  0x3b7a255d3cb7fd7dU, 0x3e46e914bdc7cab7U, 0xbc9403a63c09396fU, 0xbe061f363e0e7c3aU,
  0xbbba6a4bbd7b8a8dU, 0xbd737236be654ec8U, 0xbcbd4f1bbdf4e06dU, 0xbdd874773e8015baU,
  0x3e1e2ed0be3d9f03U, 0xbe383249be57685cU, 0xbe0a31b1bd9ab521U, 0xbe09ccf7bd364c66U,
  0xbe2d3862bdcf214aU, 0xbd8e87fb3ddd6114U, 0x3ddf87cabd80857aU, 0xbd1172a93e82ec3eU,
  0xbeb38ac0bd7c9d23U, 0xbdcb92413d6ff8f5U, 0x3bcc5b89bd89fe56U, 0xbd753ba1bd3e5db9U,
  0xbd6386a33d7a8517U, 0x3dc863c63db0a291U, 0xbdf45ac7bdfc4c1cU, 0xbe7a4f47bd074e0eU,
  0xbe2680a53dc5f0c0U, 0xbd04f62bbe398232U, 0xbd82f0473db567e3U, 0xbde7b273bdfae372U,
  0xbb881b28bdfce357U, 0x3d2225b9bd212bdaU, 0xbe47491dbe02be00U, 0x3ccc754bbc43fd36U,
  0xbeda0ae8bd5c467bU, 0x3df2e8e73c2e4540U, 0xbcdd26ab3a017cb2U, 0x3dbe0b013e0b4e10U,
  0xbd41a43e3d9a25adU, 0x3ce759573e38d2eaU, 0xbcb7eafabc0347efU, 0xbe77cca83e2540b1U,
  0x3e298c493dc08d40U, 0xbe4ccc9e3d5e1111U, 0xbb96b8af3e1765b3U, 0x3d99d78ebcf058eaU,
  0x3dc6dc8fbb184cd5U, 0x3e1916b23e24849aU, 0xbe2a69e1bbb00e31U, 0x3d1dbaab3dd7e518U,
  0xbe9ea75cbe055879U, 0x3ccbf8d43b117d7aU, 0xbc954c5b3d0b47c2U, 0xbb840e513dd8bdecU,
  0xbe032973bccdfc41U, 0xbdaa80dc3e2e2324U, 0xbde4695d3ce2c508U, 0xbe61c72b3e5614e9U,
  0x3dd8eb063d805634U, 0xbeac8f97bc385165U, 0xbda51d373d881053U, 0xbd8ab155be046a40U,
  0x3e98d960bddcdf7bU, 0xbd2ba3513c8a8a3aU, 0xbe49206fbde0bdb2U, 0xbe11b16c3bd4f7f0U,
  0x3d7b41d4bdae1cdbU, 0xbd4e47fe3d29dc6bU, 0xbd6a9a60bd77d161U, 0x3d98fcccbd81ff8fU,
  0x3cb3e5e33a626b9dU, 0xbaecacc9bd0a5c09U, 0x3cc3c1e83d453304U, 0x3d9893b4bd85c174U,
  0xbb96e68d3b6c570aU, 0xbc318770bc9d1dddU, 0xbcda248bbdc27e8bU, 0x3d60bfee3d2d8b06U,
  0xbd4f17513d82a95fU, 0x3d449b8fbb8f2611U, 0x3c6aae653da5f754U, 0x3d8d41abbc9d87dfU,
  0xbe9d6495bd2ccbe3U, 0xbd9bc503bb61b898U, 0xbca4373f3d810305U, 0x3db0ca31bc2f840cU,
  0x3da3523abd3acf18U, 0xbdc40f93bc0f28e2U, 0xbda451113da1221cU, 0xbde4330e3d1a1069U,
  0x3d9a40d6bcfd6e2dU, 0xbe3d77ed3c31163dU, 0xbbdf8dd5bd0c9931U, 0x3e0449eb3e0161e9U,
  0x3db13ec83dac9d87U, 0xbcea75ee3d19c89dU, 0xbe03c5ba3d634396U, 0xbd720a633cd93c0fU,
  0xbe9afcf8bd426d42U, 0xbce3e9623d21643cU, 0x3dbafc543ce8eb54U, 0x3c8b551d3e07f77aU,
  0xbd4dbd6b3d6fa6e5U, 0xbd8e57e33de5e76dU, 0xbd6e9a4d3db70b71U, 0xbd0076013c24a817U,
  0x3d744fd33e14aa9dU, 0xbdff5e9bbd4f94feU, 0x3a37890c3df16e11U, 0x3d9c3f583d178e06U,
  0x3e16f4f0bbc135e9U, 0x3da0d25dbd020104U, 0xbe7f2379bcfb92a2U, 0x3b0e74963d0861d9U,
  0x3e073fe5be0f47c6U, 0xbd3dd014bd65aa5fU, 0xbce9ab5abe317e68U, 0xbb99760fbe8328e0U,
  0x3de920da3d13071cU, 0x3e7eafa9bdcc008cU, 0x3d6e36f8bcb31a2fU, 0x3dc7652fbedfbc83U,
  0xbdbfd9ad3cbc8c14U, 0x3e33cf6f3d768e5aU, 0x3c7b25dfbcb8469aU, 0xbda609c8bd427d5fU,
  0xbe3101dbbd119d4bU, 0x3c8f45fdbe265997U, 0x3e33fd9e3c419ca0U, 0x3dc8eb98bbb88930U,
  0x3e85c86f3c72768cU, 0x3cd046ee3d94e512U, 0xbbff54c5bcc71d0fU, 0x3d349135bdb027c0U,
  0xbb5fce78bc597823U, 0x3d250c7cbdf9aab2U, 0x3d7237fcbd9b52b2U, 0x3dd91f91beab88ebU,
  0xbe18e6d8bddb13dcU, 0xbdd989a93e09cbd1U, 0xbcf5fa9b3c043563U, 0xbdaebc2ebdd1eb19U,
  0xbdbccdff3d2ab442U, 0xbd8f7460bd85cd6dU, 0x3eb3a4733d84640fU, 0x3d43f1d8bdc7627bU,
  0x3e14df4cbde9a0e1U, 0xbdb5e047bd1f193aU, 0xbdf00257be5f3fc4U, 0x3e09ef87be0dfadbU,
  0xbe54c76a3d97eed6U, 0x3ddb67b2bc7221bdU, 0xbde1ef18be1ede67U, 0xbdb45ed9be849eb5U,
  0xbe827001bc0a8125U, 0xbe2b22563e03efecU, 0xbc24b41fbd53ceeaU, 0xbdf2f8febe002bcfU,
  0x3d0e8b43be201ea9U, 0xbdc5e725be0d7616U, 0xbac6cfbcbd5b1973U, 0xbd319184be6659dbU,
  0xbe58df99be490d5dU, 0xbdde0d9a3daac5ceU, 0x3d8138e1bdf20d06U, 0x3caf879cbd84b904U,
  0xbcf4fd023e2b4d58U, 0x3c8634013cc02f6eU, 0xbcca71733d8e7e9bU, 0xbc8ace1fbccfb7faU,
  0xbce90f003cadabb5U, 0xbdd773cf3e35df83U, 0x3c9af2bf3ddcf3b1U, 0x3d937f2bbd88cd08U,
  0xbdbcbad43d848daeU, 0x3d1a2e2abd94ebfdU, 0xbe5130c2bd973d80U, 0x3ca72a4ebdf3e01dU,
  0xbe6cff93be436723U, 0xbc9fb62c3e0d7e10U, 0x3d356acb3c1d8c1fU, 0x3dab2aadbddcd34bU,
  0xbe05a58d3d46b49aU, 0xbc12eaeb3e2ff6b8U, 0xbd863ed9bdadf7dcU, 0xbd7b5ece3dd58491U,
  0x3e087a853dd495d3U, 0xbe6ee5043c6e5a66U, 0xbc6c96053d684763U, 0x3b60ba783cbd20d8U,
  0x3de40cb23d9b0aa1U, 0x3d75484abdc359feU, 0xbe37ac1bbded860dU, 0x3cc84c6b3d21cd14U,
  0xbe09deb9bdcadc00U, 0xbda3d5563d843f28U, 0xbcd51eaebd2287c5U, 0x3c30e932bcb59852U,
  0xbe2185783d84fb86U, 0x3a8d96f83d5b8e6cU, 0x3d834a183da5c523U, 0xbdb7e7a6be32bc64U,
  0xbe541938bba2c8e4U, 0xbee0af573d6ea100U, 0x3e02c5663e0ab127U, 0x3d92260b3da24e4dU,
  0x3cb95c743d827affU, 0x3e103715bda44843U, 0xbe1d91edbd755dccU, 0xbb947fc13d4f5434U,
  0xbe62c615bcb9306fU, 0x3d8cf850be0398efU, 0x3d10ab053cc9de69U, 0xbd80aebf3cd854aeU,
  0xbd4a27e5bd2bb2a0U, 0xbcd1719c3d9468ffU, 0x3d52e5a7bc93a879U, 0x3dde20fdbdf2ae52U,
  0xbce1ca163c89c65cU, 0xbe0656f43d4bcaccU, 0x3c914092bb709d87U, 0x3c410f373db15111U,
  0xbe44a3ca3d0adf97U, 0x3c1cfa163c21e94bU, 0xbd2ee2573e1e13f3U, 0xbd7579bb3dbfd85dU,
  0xbd71cbd03e00deadU, 0x3e302473bde6e550U, 0xbd4a897d3d7eccf6U, 0xbdad42353e112501U,
  0xbe807a553d24a9feU, 0xbd586f03bddc8f14U, 0x3d8e02653bfeebeaU, 0x3d36d0243c9964a1U,
  0xbb7dd5a33d330aaaU, 0xbee2093dbe27055eU, 0xbd2d25633d0eea60U, 0x3ce95885bc985671U,
  0xbe13d0bbbd813aacU, 0xbc93e1513da73148U, 0x3e4b97873e117e62U, 0x3d9062b53e1c91fbU,
  0xbe3f6ffe3daeddc9U, 0x3dcc34f5bdc2a604U, 0xbbe144cc3e2a62ceU, 0xbdcb2e4a3d8b87a0U,
  0x3dfdb15abc938b78U, 0x3b087b5fbdb3586aU, 0xbda1c9e63dacd8b3U, 0xbd2c98b53d011d5aU,
  0x3cc8b5dfbd9f447aU, 0xbe0b4486be42d245U, 0x3d4736debd9ea436U, 0x3d7ebc833e27687cU,
  0xbe1c7eef3d273ff6U, 0xbdca618a3e3437efU, 0x3d60dffc3dbd7426U, 0xb9a5219e3e06e8fcU,
  0xbd76f3adbe1752b7U, 0xbdee89263e4a67b1U, 0xbcfc22ddbd06b684U, 0x3d1102fbbda7560bU,
  0xbe60144e3d59e3a4U, 0xbd9565da3dec593bU, 0x3b29012e3c720493U, 0x3d9bb4bebc44fdcfU,
  0xbe19c9533bd8393eU, 0xbe8bb7ba3e2143d5U, 0x3d85b4023d88f320U, 0x3da6967dbe4130ceU,
  0x3e1e17683d3940e3U, 0x3c3e88c6be424378U, 0x3d919af3bdb515bbU, 0x3d934ca8bd7c7aa5U,
  0xbcc95b7fbe333e2eU, 0xbc0d5af53d79841fU, 0xbda4934fbe6b8460U, 0x3d86892fbbd96ef6U,
  0xbe8654903d9630a0U, 0x3bbbf9c43d96a2feU, 0x3da550e7bdb5a5eaU, 0x3dddddd2bc8cb3f4U,
  0xbe18fb1fbda379ebU, 0xbe859aa43d9becbfU, 0x3c33c5e83d0ae7a6U, 0xbdc96317be5ce77aU,
  0x3d9b2815bdd88644U, 0x3d1720d8bd4875cbU, 0x3cd479e8bd8a08a1U, 0x3c7ec3e0bd460ac1U,
  0x3de9603b3d257900U, 0x3e04b5bd3cf4be34U, 0xbd88eac9be325fabU, 0xbcf9c97a3ddbff75U,
  0xbd970b893e067418U, 0x3d51b5ba3b09f5aeU, 0x3c8c8baabd290024U, 0x3a4b11eebdc7d349U,
  0xbd8f3724bcca48caU, 0xbd2681753c95e1c4U, 0x3cce48133dde6e0bU, 0xbdb83774be408542U,
  0x3da97aeebe22bae9U, 0x3caf3c2f3dd55a2cU, 0x3e35b02bbdd0d773U, 0xbc481bbe3d0113f6U,
  0xbe8ff1d93e326d0bU, 0x3d94055cbcf2b92dU, 0xbd4942523e5d27ccU, 0xbdbe19d83e41b05fU,
  0xbe0fbe81bd6f77e9U, 0xbe1fe6bbbc8e469eU, 0x3da2d32ebc4fcd93U, 0xbe074be13de8e34aU,
  0x3d967e533c8e4715U, 0xbeaa3fa3bcff7816U, 0x3cfea2fbbe2152baU, 0xbccec6803e162b5eU,
  0xbcd1a721bdb8117eU, 0xbd7d8e513e3bca3cU, 0x3d4dedd03d0fcb21U, 0x3be7f0743d47e4bcU,
  0xbeaf31383e56eb83U, 0x3c0436603d5c76c6U, 0xbd3d374a3d9ee38cU, 0x3e0464fd3e0f586aU,
  0x3d0cdd8ebda0827aU, 0xbe3d834c3e280bdbU, 0xbd03b074bd433ebbU, 0xbc2332613d136aa1U,
  0x3df0e9763d88d173U, 0xbee45314bd50297cU, 0xbc914812bd7790a8U, 0x3de054463e4bc404U,
  0x3de873fcbc547cf3U, 0x3c040c903dacd87aU, 0xbe371695bcbbeae4U, 0xbbdb5ff93e0572edU,
  0xbda5314bbda9dde6U, 0x3c8815ec3dd6fcabU, 0x3ca5d289b9f1c353U, 0x3d261c9bbc472ddeU,
  0xbc89131f3c846dd1U, 0xbbaebbde3dff98dcU, 0x3d563ad2bccf1b3bU, 0x3d8dea0bbe235fe3U,
  0xbda9817b3a89c359U, 0xbe91723e3c27251eU, 0xbd6057233d94a61fU, 0x3b4348abbd3d0116U,
  0x3dd5d947bd23b796U, 0x3d9cb545bdef6311U, 0xbdef9fd2bd83c72bU, 0x3b1c4a8fbd45d7e0U,
  0xbdbe767f3df5524cU, 0x3d3be71dbcc0b2c2U, 0xbd6e1d613cca8885U, 0xbdc2e878bbbf64f8U,
  0xbd93a4c3bd603abdU, 0xbce75058bd3d40ceU, 0x3cecbea4bc7447c1U, 0xbd5ac49bbd38fff0U,
  0xbdb66be1bc9d6f2bU, 0xbd49c5babccef53cU, 0xbe10a78c3e0c68c5U, 0xbd857e1a3d00ba2cU,
  0xbe369754bddb6159U, 0x3cbf7c113de040a8U, 0x3deee072bd380a04U, 0xbdda82be3da2b82eU,
  0xbdc571023d83c075U, 0x3d182d55bd7f167eU, 0xbdc28eab3d63eb90U, 0x3d42c6b23dc98298U,
  0x3e5aa8543d3b9256U, 0xbccf8f3cbd593deeU, 0x3c0567aabd2eec57U, 0xbcf1adf9bdcc52c7U,
  0x3cf3ceafbd1ce75dU, 0x3d6ba385bdad8a82U, 0x3d65c8a4bdc8e944U, 0xbd6c97de3d4c3501U,
  0x3de0b948bc35e3d8U, 0x3dbf2679bcfb8fd7U, 0xbb830d3b3d50f5f4U, 0xbde4a1643d66bcb7U,
  0xbacd6a8fbd24bbc8U, 0xbbf87dc5bd108d26U, 0x3bd3cfd93c99ab35U, 0x3d696c643ce58cc7U,
  0xbd9b0ecabd3a0fd4U, 0x3d197622be010bfaU, 0x3dcae7abbd5b015cU, 0x3d8100f6bcba972dU,
  0xbd371d25bc0b3aefU, 0xbe6d2b22bc217ed3U, 0xbdf224dcbe10afdaU, 0xbd01af19bcfdd594U,
  0xbd1b3bbabd5af794U, 0xbd447c7abced65ebU, 0x3e0f458e3c9b725eU, 0x3c188b843dce1e4aU,
  0xbdb075273c9be69aU, 0x3b8de861bd929aa3U, 0xbd935abe3d91d750U, 0x3d14eda63cd65bf9U,
  0x3dc3bf27bd7b6a98U, 0x3d12d102bd43a35bU, 0xbd93e516bd915946U, 0xbd3c551a3de2a00dU,
  0x3e220f523d43b5a7U, 0x3d4aab37bd930e67U, 0xbd913ccabccab563U, 0xbd9373393da1046dU,
  0x3c8a6b543c89aa63U, 0xbd8547ec3c402108U, 0xbd0b1e543c3307cfU, 0xbdaa203e3d692d6dU,
  0x3c978939bda90e41U, 0x3d06d82dbc9730f1U, 0x3d8401a83ca5c738U, 0xbcc9799e3d82a873U,
  0xbd56738fbd68f492U, 0x3d7a88873c7fb1abU, 0xb8c775583ae5400bU, 0x3d4ab6323dff1f92U,
  0x3ce99e22bcfc913dU, 0x3d0552173db5d97eU, 0x3db1df993d9bf8d0U, 0xbcbc76cabd132fc7U,
  0x3da223983db33ca0U, 0x3cac34e23d73f187U, 0xbc99fb8bb9b32976U, 0x3bfe7b36bd718d5fU,
  0xbc0d3c23bcd16c13U, 0x3c8b20093cf95516U, 0x3d21cccfbd410684U, 0x3d491f163d8302a5U,
  0xbddb8ddf3d8287c7U, 0x3dab7a673de3537fU, 0xbd39432cbd4653d6U, 0xbd48a9053dc025d0U,
  0x3dc6b2ed3d30dac3U, 0xb9bb7e2a3c8847a4U, 0x3d8adb613e0eea16U, 0x3d90e9813b719138U,
  0x3d0e7447bd8142aaU, 0x3d02995e3d4a8421U, 0x3d9b1372bde8b3a5U, 0xbb4cd770bc9fef58U,
  0xbe8a97bfbb34d02aU, 0x3cdc4a56bb3e0c4dU, 0xbdae70183b91a9eaU, 0xbe3c3a9b3d71aaefU,
  0xbcd33a92be1e3720U, 0x3c324db9be60cdfbU, 0xbdec95dbbd2fc254U, 0xbde53ea63db7b3eaU,
  0x3b53dd37be0b5324U, 0x3caec84cbdd0637bU, 0xbda97d4abe7f6107U, 0xbbd0ca5ebd28957fU,
  0xbe904961bd1b6bb9U, 0xbdc721de3d2b3c2fU, 0xbe0f920b3bc8daddU, 0xbc037628bd44cb14U,
  0xbe040397bd3991baU, 0xbcf4db63bd378cfaU, 0xbd1361ab3d17ecddU, 0x3dacd7423d67ab56U,
  0x3a8514a3bd54b128U, 0xbda2826b3de3677eU, 0xbd941e603cefb44aU, 0xbe2714d33daf9773U,
  0x3c061d373bc0db3dU, 0x3d02b7223dc4e2f3U, 0x3c9a93b5bd6d5f13U, 0xbd2e657a3dff87a5U,
  0x3e0c874a3d826163U, 0xbd914dbb3c825642U, 0xbe30d207bc886919U, 0xbd0d0ce03d218606U,
  0xbd21df463aa2dc66U, 0x3dca38e3bd5e0f46U, 0x3d66fd0e3ce6abe6U, 0xbcc1f3293df41884U,
  0x3d9be252bd6ee7e8U, 0x3c9f609e3d29642aU, 0xbdd213b4bca04770U, 0x3d9706713d337dcdU,
  0x3dd888f8bc7c2dbcU, 0xbc1c9d44bd4bfbc9U, 0x3db848e2bdc98356U, 0x3dd21ab53dc5301dU,
  0x3d6add38bd0bef29U, 0xba87464a3de20974U, 0xbca79e03bd5343c5U, 0x3d98a4fa3c93f794U,
  0xbea96274bd62ae65U, 0x3bdc7fa1be0fbfc1U, 0xbe0bb0dcbccada3dU, 0xbe07cceebd9cdc64U,
  0xbdcb6e8bbde64c08U, 0xbe861fc5bcb27c18U, 0xbe1ed28abe1e9f83U, 0xbe8b24e63de7ebfcU,
  0xbc87f73dbc178db2U, 0xbdea8ec2bdb2bd3bU, 0xbdc73a7a3e1da544U, 0xbe124ad2bcc40c43U,
  0x3d358b19be40efcaU, 0xbd6450b7bd33ac9dU, 0xbe1673a6bdbdf969U, 0xbe13146e3d9a3674U,
  0xbea186ac3b28ef7dU, 0x3d48287bbd6a06ddU, 0xbd49dfa13de9420bU, 0xbda8912e3dedf56aU,
  0xbd715b39be56ca6fU, 0xbe01c268be6072ccU, 0xbe6c9916be42f13fU, 0xbdf17c023e4201e6U,
  0x3c67b6ddbe6fc168U, 0xbe253dd2bdf34ab8U, 0xbe841fe7be431742U, 0xbd1fea80bba91479U,
  0x3df44723bde3bae5U, 0xbe84f9613d999145U, 0xbd413180bd241610U, 0xbe6a67ee3e10133dU,
  0xbe00540c3da639b0U, 0x3df32038be531603U, 0xbdb3728a3e109c57U, 0xbd11f03e3e1e0ab5U,
  0x3deb4347be577d4cU, 0xbd0f9930be1c2e39U, 0xbe72112cbdcd1b15U, 0xbd2c4c133e34477cU,
  0x3e55e20cbdf0747aU, 0xbdacb2e6bdbee46bU, 0xbdb02852bea2290cU, 0x3c8611353d8b52c1U,
  0x3cda1521be0235a2U, 0xbe72ba813e743c4eU, 0x3cf00a80bde37e21U, 0xbdd1639a3e73c2d7U,
  0x3da64dedbcef0248U, 0xbdd286bebd56811aU, 0xbd7afa5a3da081b9U, 0x3e13498dbdd0148fU,
  0x3e3aac22bd6772ddU, 0xbdd4f4f4bd967506U, 0xbd3c982dbdc8783cU, 0xbda73afd3d8e5ac7U,
  0x3de5d013bd1f5813U, 0xbc0c9b713d49a3ceU, 0x3c359645be972353U, 0x3d795be0bca2ef18U,
  0xbd1bb79cbd59e007U, 0xbe7d44c7bcd7d006U, 0xbddf6828bde1eee3U, 0xbd4259c23d9094caU,
  0xbe15e638bd603e88U, 0xbdfffc0dbe18df19U, 0x3d95f6e7bdbacd68U, 0xbe0cb0adbd12ca61U,
  0x3dfbeb8fbdf671a3U, 0xbbd1ef55be168ca5U, 0xbd955fc13d8ff4c2U, 0xbdef92e4bd9c4f01U,
  0x3d1f7f22bdc2bbe3U, 0x3d330da1bcf2a5f2U, 0xbc88e53abe59cf51U, 0xbb8abca03d49180fU,
  0xbea34a393d710cfcU, 0xbe1d3ae2bdfb2c0aU, 0xbe336d27bc2dc94fU, 0x3d3c8dd5bde7b75aU,
  0xbe54a11bbda47f12U, 0x3d4667343dd791ceU, 0x3e0e7dfabdbf5ca4U, 0xbd696aa6be16dfbbU,
  0x3df413eebd1090e2U, 0x3e12cf01bdc50f52U, 0xb9cdecf03e2dbac3U, 0x3d25940bbc7aeb70U,
  0x3c1a64723de58c7fU, 0x3da24ef6bcdba427U, 0x3e0c8252be06d4beU, 0x3e3f4820bd35583eU,
  0xbe6f2c3b3e24845cU, 0x3d33e71abd7fa0daU, 0xbde4758c3e3b629eU, 0x3df32baf3afc9167U,
  0xbe272d30bb0b7fb2U, 0x3dc10118bd404e21U, 0xbda1fc8ebcffdc2cU, 0xbdea12f03cf5455cU,
  0xbc34af0bbd043caaU, 0xbd95bd5ebded9f24U, 0xbe94a24ebe5d6895U, 0xbe07dd653da29c88U,
  0x3dbd885abe200029U, 0xbe306d74be054f77U, 0xbe1c16ea3d215cd6U, 0xbdf8697dbcfb396fU,
  0xbc2cb908bd9b9ae8U, 0xbe218d343d8d5bb2U, 0xbdfeff57bdd10147U, 0xbe7850e4bd3b9240U,
  0xbebd5f36bd8f93e4U, 0x3d5488cebdd2c7d5U, 0xbd9802a13d489f2aU, 0xbe077d6d3dad67aeU,
  0xbcc1a75cbe672a32U, 0xbe200a31be71f97cU, 0xbe76805bbe14fcf7U, 0xbebb1bcc3e368662U,
  0x3e5062f9be5b48baU, 0xbdd48012be15127dU, 0xbddfef19be3008baU, 0xbe04bbd83c56ff43U,
  0x3ce75015bda86adeU, 0xbe7b63463ca1e10dU, 0xbe8e334fbca61ca3U, 0xbdb0b5153d858ce4U,
  0xbdc30bb9bb63564fU, 0x3e76b108bdc60eccU, 0xbbf138523e2872a4U, 0xbe61e32d3e6fcbfaU,
  0x3dae42e8be2da818U, 0xbe079923beb3958dU, 0xbd1f2b1d3b5a588aU, 0xbe0bdd6b3e99d79fU,
  0x3df05c8abe68cfcfU, 0xbdbb180cbe1a5c02U, 0x3ca7ef6abecda6efU, 0x3dc1b9483cdbba78U,
  0xbe9d9faa3c551fd9U, 0xbe5c47063e68178cU, 0x3db528473d95be61U, 0x3d870d913ea5315cU,
  0xbe2688b53d7c57ddU, 0x3e0c41273dee603cU, 0x3ca831c5bd35b681U, 0x3d8505d83d9438cfU,
  0xbd5bc6453db37310U, 0x3ddcf5933e02619eU, 0xbbf32d4b3cc9c00cU, 0xbdca51df3d27bd72U,
  0xbd9dd09a3e3e5d6fU, 0xbd75fedd3d6bc269U, 0x3d982f693e674786U, 0xbce6d756bcba121dU,
  0x3e3469e73c9073dfU, 0x3e77e96b3e0e1188U, 0x3e1c48a8bdadf8c2U, 0x3de5ea363c289419U,
  0x3cd945b7bda390a8U, 0x3db0ffc33dd870d7U, 0xbc9e2533bd0b8d25U, 0x3dff9edebdb0b0ddU,
  0x3ac18c7a3d877377U, 0xbc33fb0a3e641c45U, 0xbbae8694bda6ef73U, 0x3d4fe7b83d8051a6U,
  0x3deb35c13d62c2bbU, 0xbe26f561badb1b00U, 0x3c90f2423e2667d4U, 0x3c88403d3debbf80U,
  0x3e9afef43d720865U, 0x3e04eb9e3c846b54U, 0xbb5b256bbe3546adU, 0xbd1e8f7f3d88ccc5U,
  0xbe52dcebbdc0b25eU, 0xbe08a3febcca147eU, 0xbd79401cbe039569U, 0x3de91a4bbd93396bU,
  0xbd8ccee73c036467U, 0xbe494af03dcbc98cU, 0xbe419d5bbdd6d9d2U, 0xbe3f4b48392d4a05U,
  0x3ccd95f83dfd1979U, 0xbd9f57eebd5829b0U, 0xbdee9db03e09ccb9U, 0x3d04f3a4be29e212U,
  0x3e3e50c5bcf0d6a3U, 0x3d34b7e7bdd68223U, 0xbdf55727be4aae35U, 0xbe334a5fbebd5c88U,
  0xbd0f53723d7c3f30U, 0x3d0a7382bd3f0accU, 0x3c9929833d86d9f7U, 0x3c935b513e2541b4U,
  0x3e123a31bd52b824U, 0x3d952405bdb8e0e9U, 0xbdfcbdb73d74e960U, 0xbe334bcf3d51b492U,
  0x3d9ca13f3ce490a2U, 0x3d02a4633c757dcdU, 0x3dd9262cbd04aab7U, 0x3d43ca703e135e30U,
  0xbd9b06083bbbc425U, 0x3d3320383d2739f4U, 0xbc09ce0d3d6ebd0aU, 0xbd2cfb513d5f9f62U,
  0xbe5233353d616092U, 0xbaf8e4123cb43e32U, 0x3d5192683cdf4c6aU, 0x3de2bd61bcbb6417U,
  0x3df2b753bd566df7U, 0x3bb3b3113d9ef5eaU, 0xbc898a003d13c44fU, 0xbd1ff8d53df6a8b8U,
  0x3c3697ae3cb61f83U, 0xbc83987f3d02f3f3U, 0x3dde6271bda43f69U, 0x3e21a5353d2ec2e4U,
  0x3dd4852a3df785fcU, 0xbde450d7bd43ceaeU, 0xbd79c888bbbebcedU, 0xba92f7483da15b2eU,
  0x3cb02a2f3d3c6981U, 0xbe80ae8f3e06e783U, 0xbda27775bba31e62U, 0x3e36fbfdbe055e7dU,
  0x3d6771c63cd4b1e4U, 0xbe2f24aa3e65bab1U, 0xbd1c86f4bd3d08c4U, 0x3d5299d5be78f124U,
  0xbe2ccdc93dd25951U, 0xbe2ee3523c4e39daU, 0xbbb7517fbc8df4bcU, 0x3dd97c623bb9c07fU,
  0x3e9c09fcbdb20ad0U, 0x3da7302cbe553854U, 0xbe374d85bd807884U, 0xbe04d94fbd3824ebU,
  0xbe05e1f63df4e722U, 0xbd7dce1fbd9caeccU, 0xbe14fdd33d440adeU, 0xbe078aeebd2a5929U,
  0x3e28fa7cbd807054U, 0xbd8ee4acbe23d6b8U, 0xbe437ff6bd35b03bU, 0xbe4704fbbcae7b36U,
  0x3e227fc6be36653cU, 0xbb18b04abd424243U, 0xbd7924cbbe186c1fU, 0xbe07ab903db3a98eU,
  0xbc25e67ebd84ed81U, 0xbe31af803c6eec50U, 0xbe184f0bbcb35f72U, 0xbdeda2cf3d68b900U,
  0xbed0372f3df30992U, 0xbe36e95fbcdff860U, 0x3dd221df3e1d1fc8U, 0xbdc9289abe33ac6eU,
  0x3d0c15543d10ef85U, 0x3d3f04fdbd314c96U, 0xbba16c93bcd27f49U, 0xbe00e0d7bd200d95U,
  0x3df538b3bd860276U, 0x3d76b1473d0c939aU, 0x3c8b821cbe669288U, 0x3d025afc3d687fcaU,
  0xbe89b1163d976890U, 0xbd8df45bbe71593aU, 0xbed8efc23c20b2b4U, 0xbcf352ccbc13e454U,
  0x3de96325bdfb5d0fU, 0xbe870bc73ca38b97U, 0x3e021638bda5ec61U, 0x3e4805edbe4b5bc0U,
  0x3da36c52bca4e0a3U, 0xbdd4cda63e3f10c6U, 0x3d953cf2bd16fb4fU, 0x3da28300be87fce9U,
  0xbe1196db3d6c9b6dU, 0x3d92b5e13e3121e4U, 0x3d9fd6dd3cee0662U, 0x3e2f390c3df67345U,
  0x3d9a72e23dbab530U, 0xbd312123be451764U, 0xbe2c41673dcb5f3bU, 0x3c16a970be19ba22U,
  0xbe1a2f66bc03b6eaU, 0x3c9070b9bdef0697U, 0xbdba64f03d03e22eU, 0xbe1c0717bdd747d3U,
  0xbd1df41a3ce61317U, 0xbd96e77bbd9e63ceU, 0xbd84f549bd3cd7adU, 0xbe090adfbd87e279U,
  0x3dda1018bd47b089U, 0xbcd64126be04a390U, 0x3d015d553e0f1012U, 0xbd261a56bdacbcf7U,
  0x3da77e48bd905fc1U, 0x3d1e37bcbc8011fbU, 0xbcb65439bdf1b894U, 0x3cc7a68e3d65d213U,
  0x3cdd544f3cee784dU, 0xbdd02f02bd0f41ffU, 0xbdbdbca0bbfc1df9U, 0xbd9c4e82be5fc96fU,
  0x3c9d03023d34a191U, 0x3d88cc96bdb3af22U, 0xbba3c8a23d847a48U, 0xbc23611cbe8bd600U,
  0xbe1848f23d11b332U, 0x3d8b1770be807a51U, 0x3d679cad3b301a3aU, 0x3d43439d3d225757U,
  0xbd76f9c8bd7d799bU, 0xbcec8aa0bd999739U, 0xbdcad1c9bd5ae923U, 0x3d26dff5be1f3ec7U,
  0x3df78269bc0c4077U, 0xbdf927aa3d9811c8U, 0x3b59d16d3d01c286U, 0x3d889d52be549631U,
  0x3dbca602bd51d7f0U, 0x3d5cb0e1bcfaaa00U, 0x3ded6f0fbd2b9028U, 0x3c48e488be92b7c4U,
  0xbe33a3acbd4868c2U, 0x3e2c7fe93d9c8b78U, 0x3c24be10be3db88aU, 0x3daabe933c3f64ffU,
  0xbd05be4c3d33f645U, 0xbd1de0c7be2ae73aU, 0xbda6d8d33cab4e94U, 0x3dccd411be43f50cU,
  0xbdd960ac3be123e6U, 0xbe24c0f6bdc2a53fU, 0xbd217db83d5cfd91U, 0x3da3e815be05c381U,
  0x3da64555bdc03116U, 0xbcdf3352bd7ae9a4U, 0xbdf736053c5ca9dcU, 0xbe285bc43d640720U,
  0x3ce10398be06acd7U, 0xbc41153e3ce9b778U, 0x3cbbe2b3be3bf214U, 0x3dd363053e059729U,
  0xbe0e3b1dbd759953U, 0xbe0391b7bd5f4dd9U, 0xbe03a85fbd41f066U, 0xbe0bf0e8bda35ddeU,
  0xbd9c0c0abe2226b0U, 0x3ceb7e093db0cd32U, 0x3dcb40343cc9c1abU, 0x3d12a3cbbce21a5eU,
  0x3d2af2143d5e036aU, 0x3d12a8f03c986f0cU, 0x3d52b379bc80f285U, 0xbca8e1413da64b0fU,
  0xbc019b013c43f631U, 0x3d93f90e3bcc0fc3U, 0x3dfa9d86bdc6cba4U, 0x3d8bea05bcf539e5U,
  0xbd7bdcccba8882eeU, 0x3cb068523cb1481aU, 0x3bf7ca3b3d9d1b34U, 0x3d33e9b7bd3f3f11U,
  0x3d57da18bd529cf6U, 0x3e37d872bd0ba133U, 0x3cdbfddc3dd7f501U, 0xbe8eac313cda13a1U,
  0x3db6b65b3d5ceee9U, 0x3d33603bbe5d96ceU, 0x3e3e9b3a3e0c815fU, 0xbb16ace93d92ad25U,
  0x3e312adabd820a0bU, 0xbcdc8953be4230f6U, 0xbd208636bcf48898U, 0xbcb65060bc91e26bU,
  0xbe98541c3dcfc08aU, 0x3d9b24cb3dc2344eU, 0x3e7883c23e200896U, 0x3c8989cc3e153b0cU,
  0xbec915f8bc8d1797U, 0x3d13bd52bea36bbbU, 0xbdd0e76b3db721d3U, 0xbebd96d53e03744aU,
  0x3e4fb8febe87686aU, 0xbdbe79acbe75cf07U, 0xbea8182dbe5bec48U, 0xbeb1f1f03e8c478cU,
  0x3e85394ebeac22b0U, 0x3d40dccabe8770a0U, 0xbe24edc6bea2945dU, 0xbe018a3d3c79f3d7U,
  0xbe7f37b2be1f9f01U, 0xbea09dfd3e0ef2cbU, 0xbe229ffbbdc384c4U, 0xbe62697a3e320aa7U,
  0xbc9ea2fbbc809ffeU, 0x3e61b78abe307906U, 0xbdab70563cd60e77U, 0xbdfde3cb3e3af4ecU,
  0xbcda1e30bd856e86U, 0xbc9f7dadbd309fdeU, 0x3d0f072ebe1dfe90U, 0xbaf495833e41eabaU,
  0x3d3c210fbe03fe38U, 0xbe003aa3be83804eU, 0x3c7c6c3d3e20e78fU, 0xbb8007cf3bd3df87U,
  0xbe43b2fcbe06a2aeU, 0xbe44f8ca3e020e47U, 0x3dddd9a9bc29c270U, 0xbdcd5f713e44f9d8U,
  0x3d9fde783d3357bbU, 0x3db9be15be13dd77U, 0xbe256aaf3ac5d2a2U, 0xbec6f522bdb21f1dU,
  0xbe7f4405be1544e1U, 0xbdef05f7beeff0dcU, 0xbdc3cfdbbe321e2eU, 0xbe149efbbe3e9d60U,
  0xbd97716fbe12ca09U, 0xbdd0b08ebe67d1aeU, 0xbe4cafc93d26a4c7U, 0xbe0f8a99be02f502U,
  0xbec0140dbe011e30U, 0x3cc648f03c08daeeU, 0x3e321cac3b7cda22U, 0xbdb8b5bf3c7fcbd7U,
  0xbe866d3ebe228441U, 0xbe0da2cbbd5f7573U, 0xbe3209b3becc91a9U, 0xbe68b085be32cca1U,
  0xbdec921b3bad051aU, 0xbdd1d5cdbcc6f24aU, 0xbe2b1b80be4b1394U, 0xbe66ab483b0af8dcU,
  0xbd8c56a93d9cd656U, 0x3dc8cc0cbe54dd94U, 0xbe12ae513e08a0e7U, 0xbe72dcecbe4d67bbU,
  0xbd393196bdd0c4f2U, 0x3dbd7e3dbe037ad3U, 0x3d299d13be5c7005U, 0xbd658b22beab7706U,
  0xbdbd3ef03df35ddfU, 0x3e6ea1e73cabf1a5U, 0xbce48ce8be79d9f4U, 0xbe8f3decbc37196cU,
  0xbd9d4e693cdb263fU, 0x3e096a963db35315U, 0xbdeddb61bd93e982U, 0xbe200916bd858933U,
  0xbd5106283e04cdc7U, 0x3df9e8e5be266b80U, 0x3c6b7e933e640f5bU, 0xbd36ccd0be26bef3U,
  0xbd77f7c23d30acebU, 0x3db59abb3d22b5acU, 0x3e90360bbc637086U, 0xbc8a77cfbe607459U,
  0xbe3e979dbd8a83e4U, 0x3d123c943dbdf72dU, 0x3de59db8bdd3bfc8U, 0xbdfb98993cba6e41U,
  0xbe2592603d38f0a9U, 0x3e0fe8843d3dbd52U, 0x3d6c37c1bcdbf97aU, 0xbe1649fcbe84806eU,
  0xbe70b06c3d9368f2U, 0xbd2f9a933de10c4bU, 0x3d4c809d3e79f2c2U, 0xbd008a0ebe6960a3U,
  0x3db0a8c33da171aaU, 0x3e54425f3c9121b4U, 0x3b72f764bdc45ad9U, 0x3d2f3823be438b14U,
  0xbe49c9453c4fcfebU, 0x3e1f0d78bd5870f8U, 0x3cdd13b03ac9832eU, 0xbe533fc63dcff8bbU,
  0x3d6c0a6cbe02fac3U, 0x3e60b8f0be28d455U, 0xbdeb97d6bdd69484U, 0xbdd281b43e1a59dbU,
  0x3c95aa64bcaafeaaU, 0xbd2cdd02bc9cc636U, 0xbcec6f6abe2dc70aU, 0x3c5b1b31bb3de8deU,
  0xbe2ea16bbd48d4fcU, 0xbc0c972b3ddfb7a4U, 0x3e01e5863b250674U, 0x3d980fc53dd221a9U,
  0xbd3c78373e4df33bU, 0x3e37260e3dda6028U, 0x3d93d1863e4fdb2aU, 0xbd3f88e53e3aecd8U,
  0x3d0003373d69c25aU, 0x3e1555c2bd1268d7U, 0xbd129d213d80393cU, 0xbc877d363e0ebd7fU,
  0x3e0575fd3d94c022U, 0xbdace1df3ce63b43U, 0x3c81b985bb4167a6U, 0x3e0c610c3d24468bU,
  0xbdb19021bc70bc49U, 0x3d96293f3e1c8023U, 0x3ddc66ff3d11623aU, 0x3e0cd7743e76f792U,
  0x3dddd62dbc188c72U, 0x3d7ea08a3d468ec5U, 0x3cceea76bdb6d838U, 0xbdb31d923d8acf1cU,
  0xbe9a9c70be39bbf7U, 0xbdb5a9febe2104a5U, 0x3dc906e1bd3ce317U, 0x3e7a6939bd80b9a4U,
  0x3d9850c0bcf27871U, 0xbe3ad0e73cbbeb94U, 0xbdd8c076be468064U, 0xbd77be47be1175eeU,
  0xbe8e1a53bcd6b0bfU, 0xbbe6a1d43dc5ff1bU, 0x3e2f94253de92cdbU, 0x3c951c363d8d7b9bU,
  0xbe2e725cbe2ca280U, 0xbe34a2ba3df5d9d6U, 0xbdefcde5be6b9c9eU, 0x3d000413bd87bdc3U,
  0xbe3cb6193e0322bcU, 0xbe0f38ed3e726743U, 0xbce73e8cbda525a6U, 0x3cb284163d66f1ffU,
  0x3df55319bcacb353U, 0xbdd0e6d0bc3725d9U, 0xbe0fc4a63e596886U, 0xbde96179be3819c3U,
  0x3ec2a9e5be0980d8U, 0xbcf4da64bdf69b19U, 0xbe04aab1bdd613faU, 0xbc8ad9abbe4762d5U,
  0xbe7510f23c32a8edU, 0x3c05e1ffbdea1ef2U, 0xbdde4d4c3d2f2d36U, 0xbdec1e7c3dc57d41U,
  0xbdc95bdcbe0c2e05U, 0xbe08d9d23c49dec8U, 0xbdecf2c9bd87af39U, 0xbe4b694a3e481258U,
  0x3e2acd1ebd07de4dU, 0xbd793266bd7bd816U, 0xbdd8534b3dd0369dU, 0xbe660862bd7230d4U,
  0x3d3f3a49bdff96fcU, 0xbe1482863dd01048U, 0xbe22de8ebd91a82fU, 0xbe6eff28bbf24424U,
  0x3d893cd93d7ca130U, 0xbd55e8cabe049aeeU, 0xbe79a24dbe5114edU, 0xbdcda2febe40119bU,
  0xbe915705be3f7508U, 0xbe59f2bebe158c37U, 0xbe4266a2be2679d1U, 0xbdbef15bbe136b43U,
  0xbde6d2e3be518974U, 0xbe2cb79fbdd727daU, 0xbe71ddf6bd86bacbU, 0xbd924d96be6bc5f0U,
  0x3cf7da76be5957a4U, 0xbe13c2f0be111ee9U, 0x3d942888be9be40fU, 0xbe5f7c42bead0919U,
  0x3da2c4aa3dfeb7ddU, 0xbd785b743e0c1136U, 0x3db514183e150ceaU, 0x3e0a717cbdbe36b0U,
  0x3bde52c5bc942d4dU, 0xbd3522893e3694f7U, 0x3cd872ad3e0ad488U, 0x3d6929e93cd99b46U,
  0x3d0c6a1b3d7180e4U, 0xbe2b53733df3042dU, 0x3d7717a1bd0b44d3U, 0x3dd77db33e1439c2U,
  0x3e44f9503daf5149U, 0x3c70e1b4be03297aU, 0xbe0004213da7785fU, 0x3d6ca6f43ca98521U,
  0x3cda288ebdd4fee4U, 0xbe753bcf3cc57e8cU, 0xbb1b89bebde8518aU, 0x3ddd381fbe92b5eaU,
  0xbd0b7b0fbe0023cbU, 0xbe2cc8ab3d96731aU, 0x3cf282a2bd90d82cU, 0x3e2d0ec63ac7881cU,
  0xbd17aa2dbd0780e9U, 0xbcb459193d27ba8aU, 0xbe02dd933cee4baeU, 0x3d151d043daddc62U,
  0x3dbc2fa9be03eb11U, 0xbd9daadbbe70ab09U, 0xbe748120be00a808U, 0xbe021152bd02d890U,
  0xbcce4d14bcfc5ddeU, 0xbe9f32a3be5f029cU, 0xbd2e2919bd64eaecU, 0xbe024b2ebe0fb912U,
  0xbc0c9274be684d28U, 0xbe525f26be4a9aecU, 0xbe128406be137be1U, 0xbdcccc2b3d6ea6eaU,
  0xbd7ddc37be612016U, 0x3ce11f2cbe102122U, 0xbe4fc0ebbe3fcaa1U, 0xbd3abae43e13a69eU,
  0xbe3e085cbe4d0c56U, 0xbe8b8e8dbe0b6f08U, 0xbebdad0fbd8d0e3aU, 0xbdf88f2fbddb2656U,
  0xbe06aee33c58bf54U, 0x3d602af3bc19cae6U, 0xbcd8bd333dcd8712U, 0x3dcc98553d8fc452U,
  0x3e2cc40fbdc448c4U, 0x3d6f6da23e4fb415U, 0xbbcc784bbd8cb4f9U, 0xbddc577e3e08f23fU,
  0x3e383103bc2d7d2eU, 0x3e09ac5f3d664948U, 0x3d399fd13c38b2efU, 0x3c4823e83d827c2cU,
  0x3c29bd093bc8982dU, 0xbd9a99363d31a0efU, 0xbe046fed3d188efeU, 0x3bbf7e0c3d273e00U,
  0x3cf721693cfbdc9bU, 0x3d72c9123c309ea3U, 0xbcbcabca3b5be2b6U, 0xbdcdff973e044168U,
  0xbd8d6c5a3da1aef4U, 0x3ddb10163d421be0U, 0x3e0958f13d9b20f3U, 0x3ce4baae3cc57e1eU,
  0x3e1597fa3d1ecafcU, 0xbd54ba5d3ccaa65bU, 0x3d7f6e7a3e446b44U, 0xbcde59acbbea2e06U,
  0x3b1918f23dc1ecadU, 0x3e1c20153e1d1a58U, 0x3da9d42e3d88822eU, 0x3dd343b93d9fe9e0U,
  0x3ea7fc88bd533038U, 0x3e37e162be03bda3U, 0xbe08aae2bdc112ebU, 0xbe9328273da32465U,
  0xbe47ce27bdd16b51U, 0x3c5cc796be76c5cdU, 0x3e56e425bd500e0bU, 0x3e197fe53d4962c0U,
  0xbc05b5abbdf42a65U, 0xbe18f7b0be07846bU, 0xbd56d301be1c9683U, 0xbe189d19bcf0ae9cU,
  0xbe89a602bdabd6c6U, 0x3d0c52033e03185aU, 0x3ec747a33e0e1eefU, 0x3c9323ca3d20ca17U,
  0xbe82ce30bc37df1aU, 0x3da3a0e6bd86ec68U, 0xbd04e9073da94491U, 0xbdf9014f3dcf2618U,
  0x3e1317dfbe6ced77U, 0x3caffd6fbdfaefb7U, 0xbdfacee1bdedb935U, 0xbe42b4e43ddf9f57U,
  0x3dedf4bebe38ea26U, 0x3d525936bdba2674U, 0xbdc34b25be0a78b5U, 0xbd8846eb3ba35a35U,
  0xbcb1739dbda56e11U, 0xbdc327c63d893a6eU, 0xbe1d83febdb3f47fU, 0xbcb401723d703a47U,
  0x3d69d0b03b2901edU, 0x3e5af263bd56e2d5U, 0xbdde4ef53db0892aU, 0xbe8321da3e3dc15aU,
  0xbd562b47bd5f049bU, 0xbd49a6a5be2c9018U, 0xbcd25a55bd499706U, 0x3cbcaa0a3e51df56U,
  0x3dc0ea46bdf4e54eU, 0xbbaf9b80be06f926U, 0xbe1204a53e492c2dU, 0xbe375a89bdfe94edU,
  0xbe19c2c2be21d444U, 0xbdfbaba73deece6bU, 0x3e8f485cbd766b42U, 0xbb9ad7513cca05e9U,
  0x3e3474de3dabd433U, 0xbe22af6cbdc76967U, 0xbd7e6388be4322eaU, 0xbe536f2cbe1db5a1U,
  0xbdc878e33e063744U, 0x3d893242be1459e2U, 0xbd94a2d0bdd3a570U, 0xbdc37d1ebe708b4bU,
  0xbeae0a8ebd89f931U, 0xbbceb67cbe630d92U, 0xbd1351013de44792U, 0xbd5858cabd0fdc66U,
  0xbe5d5431bdc6a0c9U, 0x3e092bc8be4b9ce7U, 0x3d3fecdabe31bda9U, 0x3cb2fa07be8681daU,
  0x3d326e19be2c93f1U, 0xbdae029fbe815edcU, 0xbdab031fbdd39da9U, 0xbe8004edbdf0bde1U,
  0xbe3994c1be64099bU, 0xbe2e9e15be50a6daU, 0xbe016264be4fc9f3U, 0xbdd40e933dcbad51U,
  0x3de8ccfabdca4d0dU, 0xbdb04263be13aa91U, 0xbe5e4458be320486U, 0xbe709cb5be236402U,
  0xbe8bad43be70e0ebU, 0xbe38f7d8bca4c330U, 0x3dd4e2c2be027ae5U, 0xbdd28285bdd16719U,
  0xbe279b493d0b2584U, 0xbd52d2f7be31f04aU, 0xbd85edc1bd5b4f81U, 0xbea49826be13876fU,
  0xbc365369bd4191fdU, 0x3de4faecbd3b87fcU, 0xbe43e531bd3cf141U, 0xbe328b45bdafb563U,
  0xbe30c6c9bcededdfU, 0x3dbd3b82be85400eU, 0xbcfef8b33e460a57U, 0x3d69b18fbc0effd6U,
  0xbe92742cbd0f2faaU, 0x3ca3b7c9be03c343U, 0x3e053f70bad4293eU, 0xbd43eae9be6d26dbU,
  0x3cc82c29bd816598U, 0xbdb3794e3c89ba85U, 0x3ddd0a6fbdc9e379U, 0xbe188c943b0a6e7eU,
  0x3da9e9f33c033520U, 0x3d537d59be01593eU, 0x3b375032bc142380U, 0x3da1c843be284235U,
  0xbeaa0114bd21a1a1U, 0x3dc91808bdbe055fU, 0x3c2f19d93db30feaU, 0xbd5e47cb3cb93d7dU,
  0xbdc00a6c3df4740cU, 0x3d9696f4bd1befb3U, 0xbb8c1c5fbcef48d4U, 0x3dc8f70fbe73305cU,
  0xbdf3b9f73d70c820U, 0xbb9f6e50bd6b78fcU, 0x3d82f5b63df04db4U, 0x3d32872d3c45ce66U,
  0xbe2bbf11bd813b32U, 0xbdc8e5ccbd74caf0U, 0x3d3d0c953d6bb200U, 0x3df4cd96be04fefbU,
  0xbdc8a60dbdf4c3edU, 0xbe8d714e3e0b0ddfU, 0xbd9b9444bdab046eU, 0xbdc9d3723d4a6aa8U,
  0x3de1aea8bcb91c56U, 0xbcb99f1fbcac788bU, 0xbc8ddf4f3d92be06U, 0x3af2b2213dc73b70U,
  0xbec144c73d8714d9U, 0x3d26b679be1064b9U, 0x3baf574e3d838518U, 0xbe5505873da6c00cU,
  0x3cfe6190bc9e27fdU, 0xbdb8434fbd4f54e3U, 0x3cef01af3d660f48U, 0xbe7f25f3be306a66U,
  0xbddb4ebbbca560e4U, 0xbdb2c1e0be5b2c31U, 0x3d1dc861bd1d5ad6U, 0x3d9a659e3e410b04U,
  0xbdf305f5bca77e66U, 0x3df00ed93cf81085U, 0xbcddd6763cfdd3b3U, 0x3d1c8927baf670bfU,
  0x3d9956a7bd7c7328U, 0x3d33b82bbd10d397U, 0xbc622f9d3c752c39U, 0x3c8f1619bdcc6a67U,
  0xbdd5e93fbd9cbfb0U, 0x3c9888cfbdf70b93U, 0x3d89e1673cc64915U, 0x3e42b3c9bec4e65dU,
  0xbe349790bce13ad3U, 0xbe0aaabfbcb49608U, 0xbc52236dbe8be277U, 0xbd19f4aebd073729U,
  0xbe00ffdb3d00dbf2U, 0x3d387657bd6ed3a4U, 0x3df83fa63e217370U, 0x3cbdfbe53cbaecdfU,
  0x3e04a72ebdf77ba5U, 0x3d4ec091bcea5b9eU, 0xbdcd5657bd8eaef5U, 0x3dc481b13c090cd5U,
  0x3c8fe4a8bdbc3fd3U, 0xbe10c16fbe387778U, 0xbd561339bd77ec13U, 0x3d9343c8bc838ed1U,
  0x3bc2bdf4be3dfdc2U, 0xbc6297183e167369U, 0xbe64f4bbbe1ffa91U, 0xbe346a1abd2b846dU,
  0x3da99f27be24f170U, 0xbe63ecf93c5efdeaU, 0x3de3d161bd8a2319U, 0xbe330f753aa87fe2U,
  0xbe0680f13dd0cdc6U, 0xbe3a8c95bd696e42U, 0xbe146fe93dc1a6efU, 0xbdde1435be2d9f23U,
  0x3e873189bdae7e64U, 0x3ddbfb85bea1a523U, 0xbd4152f1bd7a2a9bU, 0xbca3f7e1be39e22bU,
  0x3cd6b916be2d4cb1U, 0x3e517614be220cedU, 0xbabb01eabe03e52eU, 0xbd85b9273dc8867fU,
  0xbebb5d54bd8f1eb6U, 0xbd35ed0dbe35fcd7U, 0xbd29d3ef3d2e9d3dU, 0x3c97971e3db3f398U,
  0x3e2602283cdba38eU, 0xbe3686813d79cf8bU, 0xbb2c1e0fbe4dccdcU, 0x3e342853be74e0ffU,
  0xb78a10e43e21bc5aU, 0x3db7b44d3d045b9fU, 0x3e29b1d6bc6f5a22U, 0x3e3feef4be9f1a07U,
  0xbe6f25213d856a1dU, 0x3cbc15af3e777476U, 0xbd6e8aa1bd9120dfU, 0xbc1201fabdd705d2U,
  0x3de319043c3863ccU, 0xbd9889a2be0b5fe4U, 0x3dfa4c573d743214U, 0xbd77763cbdcfdb44U,
  0xbea1a6763bfc989bU, 0xbe1389b1bd8d4628U, 0x3ac04c31bbef208fU, 0x3ddf995ebd5e0943U,
  0x3e0e4b3b3dd64824U, 0xbc4583013ddeeb3aU, 0xbdea3c8cbcb7c8b8U, 0xbe7988b7bdb67d23U,
  0x3ce1fb3f3db31e45U, 0xbdbb8c493d0699deU, 0xbd336fb83d651ae1U, 0x3bcf0347bc9a7b3dU,
  0x3ddfa48cbcd4fa55U, 0x3d08579dbcd86fb9U, 0xbe619279be71c5a4U, 0xbb94caf33d6f6fc8U,
  0x3dfa1e89be341447U, 0x3cbbf7dfbce71ddaU, 0x3c815deabbc61f78U, 0x3c87c7dbbb80231fU,
  0xbd61312f3e02ac0cU, 0x3e4a3471bc7cc231U, 0x3cbd110dbdbafeacU, 0x3dd49f7bbdd1b461U,
  0xbd48ce0a3d57a761U, 0x3d8280ab3c6ec3c4U, 0x3d6a57e73d036b27U, 0xbd461689bd947c90U,
  0xbd37428a3c0946e8U, 0xbc853dccbd6d11e8U, 0x3e287e433d9cc050U, 0xbb52f3023d8b8974U,
  0x3dadf5b63d79fb8dU, 0x3ca101b23db0b63eU, 0x3d0f1eb3bc868149U, 0xbd898c41bb06abadU,
  0xbde839353e5c47c2U, 0x3dfbf7af3db1a905U, 0x3d02a279bd8a8037U, 0xbcb8bee83e199bf5U,
  0x3d139d9d3dbc358aU, 0xbdeac7c53cf5101bU, 0x3d99dfb83e2f2931U, 0x3c0a3671bdd24343U,
  0x3d8e3d06bd9992e8U, 0xbd7d716f3b93284cU, 0x3d12e6a43b10a6d8U, 0x3d62a5243e2b9dffU,
  0xbe41ceafbc7a095fU, 0xbcdc4800bdb2b433U, 0xbdf2d72b3d671368U, 0xbd199f93bd49d8faU,
  0x3de08183bc965778U, 0x3d6f6906bd5d4272U, 0xbdfe4a59bd2de20fU, 0xbe0218043d8276cdU,
  0x3c72379ebe373e59U, 0x3e0218153cb1d4e2U, 0x3cc65e72be55b34eU, 0xbcfc793a3e1ca4cbU,
  0xbdb57c1bbd73fc67U, 0xbcca209bbc1203adU, 0xbe2bd7c7bdb39ebeU, 0x3c67fea8bb6f894cU,
  0xbdf14c02bcb15d58U, 0xbdb5b3203d14cc65U, 0x3dd607663dd0a4aeU, 0x3e1aa346bc47c5e8U,
  0x3dc9f320bd013b9aU, 0x3d54b638ba7f568dU, 0xbd52de083d41ddceU, 0xbd887076bd193bdcU,
  0x3c9dd7b33cd001d8U, 0x3c82ccfb3da58803U, 0x3d9b49fcbdae7540U, 0x3b9e780a3d802373U,
  0xbdb531da3d70aaf3U, 0xbd22e8a7bcf2e44bU, 0xbeb6f6383b68b246U, 0xbc4e8a20bccc37d9U,
  0xbdd39dd1be863034U, 0xbda444af3ca8d1e4U, 0x3d39dbeebe0fed99U, 0x3d4c440abe860fb9U,
  0xbd056a19bc01c516U, 0xbe1383293db4e560U, 0x3de8f9d4bd5267afU, 0x3cbe65b33ca39ef4U,
  0xbdc2e84b3da2b1c5U, 0xbe25ac1b3d3d7200U, 0xbd612909bcaf1858U, 0x3cfe09dabd4c6124U,
  0x3ddf7213bc89a658U, 0xbd05fba9be8d8e0aU, 0xbe46e3efbd88e40bU, 0xbcdfe920be0cb5bcU,
  0xbe813376bdd69e54U, 0xbe041193bdf20b3bU, 0xbd9dcc75bd061745U, 0xbe0d73ecbde0c22aU,
  0xbb472f6dbe190939U, 0xbdfb33c9be559d5dU, 0xbe3d3b66be455cd1U, 0xbe91bc0dbd874c7bU,
  0xbcebf528be2eb89cU, 0xbd111dc4be289153U, 0xbe518b0bbe219981U, 0xbe3677fd3c89b4ffU,
  0xbe7b0aebbd8f8be6U, 0xbe0c173ebdd687a2U, 0xbe93b515bdde17caU, 0xbe1a9746bdccd37fU,
  0xbeb9e4733d8364eaU, 0xbc7d108d3cdb8b2eU, 0xbbd894583d04a358U, 0x3d3adfa0bcee2063U,
  0x3e34dafa3cbcc499U, 0x3dc32339bdde52b6U, 0xbe4714c2bd1af385U, 0xbe42e4273b7a1a01U,
  0x3da2f08a3b20e9d1U, 0x3e19d38dbdce6cdeU, 0x3d706099be0b1224U, 0x3ddc6d7c3deaf6daU,
  0xbcc635a9bd962401U, 0xbdff3c183cf02761U, 0xbe67376cbd8c8c47U, 0x3c90fa4d3e120b92U,
  0xbe8b342c3dcfd322U, 0xbde3c9193e143fb4U, 0x3d3eb99d3dcc7e90U, 0x3e9d2858bbe06906U,
  0x3d658d973d76ba41U, 0xbdaa7e4b3e8172caU, 0xbd41c6afbda5730aU, 0x3cfa29b8bdd135beU,
  0x3d4938ad3d6112e3U, 0xbe70fe5b3d6e91fcU, 0xbd4cb7cabda582c9U, 0x3dd526de3dc5ea59U,
  0x3e905a013dbf20bfU, 0x3b0d3d31bcc5fb04U, 0xbe954e25bd9c8bceU, 0xbd73bd5c3dc60ccfU,
  0xbe55c37fbe352709U, 0xbd1b6676be01868aU, 0xbe340bb0be500813U, 0xbe0b37ccbd30a3cfU,
  0xbd845d98bd119ffaU, 0xbe06738bbce73819U, 0xbde529e0be07ffecU, 0xbe47a4fbbd1d18a9U,
  0xbd0a79dbbb92ee37U, 0xbdc66c84be3f80beU, 0xbd9e38113da0062cU, 0xbe843a72be3f2bd6U,
  0xbd26fc20be3d5eb0U, 0xbdb48dce3ca8880cU, 0xbe13ac4ebe1c3c67U, 0xbe3045b1bd54070eU,
  0xbe432e78bcd71d17U, 0x3d7d844bbe3b1ca4U, 0xbdc21aa33d84bbbcU, 0xbd8207063bfdc208U,
  0x3e07f3b0bdc8ff9cU, 0xbd260b4cbc4f3673U, 0xbe5238eebd8e42e5U, 0xbddc9c583dbe2911U,
  0x3e47ce67bd5f3e89U, 0xbd3de975be053123U, 0xbd6284063d03ca04U, 0xbdb4c6d43d9bc813U,
  0xbd60505cbdb440b2U, 0xbcbdc8e23e151316U, 0xbe2453f9bda5a9cbU, 0xbda189073e0ed118U,
  0xbe9106bb3e2ffaf1U, 0xbcb076e73d9d4752U, 0x3e0291c03e2ce904U, 0x3d2c8b583d971ccdU,
  0x3e02b8a9bcec685fU, 0x3d02c3103e4a55adU, 0xbd90747abd17f0f2U, 0xbd69c2383e3612deU,
  0x3e6485723c85bff0U, 0x3da470413bfe4c59U, 0x3de85e4dbd1e2cd7U, 0x3df33a263dd9b16aU,
  0x3e029f343e12bbaeU, 0xbc7f06323b56d20bU, 0xbe5ac0b83d815c57U, 0xbd8e2dc93e2b1f8dU,
  0x3d56a5e0bcd64152U, 0xbcdaeb6bbd0ac70cU, 0x3d7f9bfdbddcf634U, 0xbd96236cbde716a4U,
  0xbd19aeaf3d3e37ccU, 0x3e2ee678bd8e8dc2U, 0x3de421de3dbb11a2U, 0x3cfdc0d2be8bd795U,
  0xbd996796bcba9efcU, 0x3d9aa2c7bd1c96b9U, 0xbd3e0a57bca89120U, 0xbbdbbf703d14b7caU,
  0xbe485fea3df4b453U, 0x3d8428cfbd90042eU, 0x3e363de23c0de4c2U, 0x3d7e78f4bba449fcU,
  0xbe156a5a3e355d80U, 0xbd378a83bcdbcf51U, 0x3dbcd8da3e46895bU, 0xbd3241563d598293U,
  0xbca4ca963a6b2134U, 0xbd8db8b2bd051625U, 0x3c8bfd6e3d8c0a09U, 0x3d2d5c17bd588865U,
  0x3d40491c3df43ea9U, 0xbe4df812bd944cc4U, 0x3d9d7cf2bde896a1U, 0x3daa1d903dbde393U,
  0xbe458bba3dc2ea0fU, 0x3dae380a3d04b6b6U, 0x3d7c92103da21ee5U, 0xbc951ad43d9b2fbaU,
  0x3e3706a03c2cd05dU, 0xbbd69c403d08af62U, 0x3d47106c3da28f9cU, 0x3d8e0ca1bd8e074bU,
  0xbc4df972bcc2f92cU, 0x3d9b36f73c881017U, 0x3dff86f93d6eb99bU, 0x3e045469be383376U,
  0xbdaf38bc3d0b5b7aU, 0xbda20ad03c09a319U, 0xbd84db69bd678305U, 0xbd2911083d9fbca4U,
  0xbdccbf55bd39459eU, 0x3dbab418bcc2dc97U, 0x3de66d5e3d82f486U, 0xbd3857dbbd8213bcU,
  0x3e1f6131bcd5e7c8U, 0xbca9b13b3dbacec0U, 0x3d39ca8dbe0ad975U, 0x3e16d4b9bd8e4be9U,
  0xbe1111e0382f6920U, 0x3c8671b2be759a11U, 0x3e103b6e3c6b684bU, 0x3e01821ebe7ce5ecU,
  0xbe8ca367bdfdb891U, 0xbe35a2993e1edac9U, 0x3c7ae0a3bec11c2eU, 0xbda49ac5be30189aU,
  0xbe9931de3a140b08U, 0xbbccf9eebdad212bU, 0x3e0adffebc92e009U, 0x3d21f5b3bdf2e695U,
  0xbd25a1a93d82b035U, 0x3dc92e9fbd783fc9U, 0x3cbc727c3cc7db08U, 0xbd98d8db3d79ec64U,
  0x3ca251a9bdabc4ecU, 0xbd19efc6be82c64fU, 0xbd38bfcebc0d9219U, 0xbd760ab3bde00894U,
  0xbc630098be4f07aeU, 0xbd3fb5f0bca28dd6U, 0x3c3545fdbef01858U, 0x3dbef9243dbd2addU,
  0xbe425000bc7de7b5U, 0xbe5b411d3d5ccb1cU, 0x3ca5d2d7bd75456fU, 0xbdb512653d6fc263U,
  0xbe2166083d713fdcU, 0xbe1dded33d5c4287U, 0x3d46a0823dba0a3bU, 0x3e2cae6cbe09d48cU,
  0x3cd324653c8f7884U, 0xbdd0d7bb3dc99b8fU, 0x3d4bbfcb3d368871U, 0x3d4e11babd44dd3eU,
  0x3d3e534d3cf734dbU, 0x3c8431e63e56bd0bU, 0xbbc9ffdebe27b9daU, 0x3d4341143dd6e927U,
  0x3dae6fd63d3362b8U, 0xbe0a8088bda9d42fU, 0xbe0da6133d994a87U, 0xbc6e070e3ca2cb06U,
  0x3df1d3c1bc6b5d9eU, 0xbe36683e3bd50dbbU, 0xbd598084bcf54b09U, 0x3e62fde8be2fa142U,
  0x3de00ebd3e0090c7U, 0xbd8a7f223dbd3106U, 0x3ca2c1a8bdb47d82U, 0x3dc41d88be93201cU,
  0x39a9a1d53d7f787bU, 0xbd60bd763ce80628U, 0xbd9100c6bdf2648aU, 0x3d2e60583e3a3a76U,
  0x3e0d0fa33d8cf014U, 0xbe285a14be51b47dU, 0xbe201f52bd91eb0fU, 0xbde24a36bd42064dU,
  0xbc9279b5be191a49U, 0xbd3d16273de2399aU, 0xbd94c6953d698bbbU, 0x3e0351533dcbc246U,
  0x3da724fabe1b8b67U, 0xbe3f0efebd4d3796U, 0xbdbb7c13bda932f1U, 0x3d49a83b3d97a568U,
  0x3e1b21413c6eecf0U, 0xbe3a57f53e36fa3dU, 0xbdd4e14fbe80a79cU, 0xbdb44045bd24c6e8U,
  0x3e94ad1fbd922320U, 0xbe67da33bd204462U, 0xbdfd6739bb9f3dadU, 0xbda806943dcb5df0U,
  0xbea107a13e119272U, 0x3e141ebfbd90775bU, 0x3beb83883e6d9031U, 0x3e11e49b3e5c8d5eU,
  0x3d66fbcbbd8aa596U, 0x3ce81f6c3c194423U, 0xbe57f55cbd2a94a9U, 0xbe090ca63e269b62U,
  0x3e79d650bdf75550U, 0xbd56edfb3c5ce344U, 0xbd114f26be9c630aU, 0x3de147a03e6373f2U,
  0x3d616ab03c159fb2U, 0xbe623b103de34da0U, 0xbe39d639bbe8bf73U, 0xbc26afd63e30ea10U,
  0x3dc35787bd3ee5bcU, 0x3d897809bc888e86U, 0xbd9029aebe1ad162U, 0x3d87d413bd4e2242U,
  0xbd8602f4bb85dab8U, 0x3e854505bcbb7c33U, 0x3da741bf3c273abcU, 0x3db4a60bbe73b0eeU,
  0xbe85495cbdf6a1e6U, 0x3d3621f9bc99f2e2U, 0xbdbdf29fbd500842U, 0xbca38ffcbdfda93bU,
  0xbe402e50bc48cf59U, 0x3db03e373cb2ed8cU, 0x3e3be4f0bd400d88U, 0x3db3435cbd36617eU,
  0xbb02a3f43e20a055U, 0x3cbaf0e73c1f0ccaU, 0xbc77f36a3d3cd88eU, 0xbc0a3e1b3d2780c4U,
  0xbcbc48293d82f4f5U, 0xbd0de36fbe28cf4aU, 0x3d9ace48bde8f190U, 0x3d198e47be25a104U,
  0x3cad825dbe031c64U, 0xbe6549a43d3bb215U, 0xbbc9f1b1bdfc3a0fU, 0xbd949d93bd0d1720U,
  0xbd872910bddc858bU, 0xbd35a5053cd7679cU, 0x3e20df0f3c967465U, 0xbd7f13043e819bf6U,
  0x3cdd1d1e3ddbbb18U, 0xbe323a363d3dc38cU, 0xbd81abd5bc374490U, 0x3c448f60bdba82f6U,
  0x3cfad334bdb43a58U, 0xbd6e6a383d776acaU, 0x3d76281ebe492defU, 0xbd4497aebe7ba35bU,
  0xbd182a4d3cb3b695U, 0xbdad78e53b7f4617U, 0xbde38092bda2f151U, 0xbda6d3d0bdcbdc08U,
  0x3e0026b8be13ad1aU, 0xbe222a8abda2472bU, 0xbd2aea44bdf28032U, 0xbde5f75fbdf48646U,
  0xbe33dbf23a9260c2U, 0xbe00c1f33e2c8eb8U, 0xbd93840d3db70b25U, 0x3e061a5ebdf2a338U,
  0xbdd1bd9d3df6ab03U, 0x3c0d00f13d59b257U, 0xbcfdcfbabe02a40cU, 0x3d2ebc0cbd86c2cdU,
  0x3cb0b83bbd546722U, 0xbe9470273d9a4e08U, 0xbe02eab43d3e18f1U, 0xbd1225dfbcc5cdeeU,
  0x3e1639f6bce0f1ecU, 0xbdb644c6bd8cfecaU, 0xbda759dbbe243356U, 0xbe140efe3d7a2349U,
  0xbdf4f3fb3dc74785U, 0xbe2ef5c53c7beab5U, 0x3d58b2623c422d25U, 0xbcf7b4debd3da223U,
  0xbd1c12053df4b77bU, 0x3cb47bba3dd02dafU, 0xbd42fe343c0cb3e4U, 0xbd92703bbdc40b2fU,
  0x3dcdde283c5daf85U, 0xbe517e4b3d51fe04U, 0xbd0d12cd3d1ded03U, 0xbcf69db53c8ce881U,
  0x3cb29f0ebda690bcU, 0x3dfe34f2bddd36e5U, 0x3d3c6bec3cffdd33U, 0xbd8247b93e24d859U,
  0x3d1e46f93d9b06d0U, 0xbd9fc4afbcf7c962U, 0x3d66ae34bd8c0870U, 0x3da2260ebcc65150U,
  0xbe1a66553db12dfbU, 0x3d0ea0dfba87b128U, 0x3dd778debd382363U, 0x3de546eebdff9d4dU,
  0xbdcfa1e53d88e4e6U, 0xbddef65b3d828c2aU, 0x3dbb349e3b110f45U, 0xbd4ff099bb8fff2dU,
  0x3c113261bbe1c4e8U, 0x3d1b811abd87ee9eU, 0x3e1e70563d3e585cU, 0x3de178323d069f45U,
  0xbe9758bb3dc04293U, 0x3dffa0f13db628bbU, 0xbcc623603e358302U, 0x3d610ae63d9eb2b1U,
  0xbe44c0663d33fd2aU, 0xbd3277b43e1159d9U, 0x3d2c8477bccf65feU, 0xbdda8969b902c658U,
  0x3d8edd043dd5d52bU, 0xbeaeaa66bdd986c3U, 0x38c357c23e2526a3U, 0x3d5095ad3dd193c7U,
  0x3e3602c63ccd752bU, 0x3d187b0e3de01fbdU, 0x3c9b1d3ebd80b1a0U, 0xbd8dbfed3e3ff37bU,
  0xbdf25edd3e035aecU, 0x3ddb1fa5bddbef16U, 0x3c99f72e3df5f533U, 0xbc0b38343e07a331U,
  0xbe0de551bbeea52eU, 0x3d0966b8bdb08810U, 0x3c0ea3923bd43250U, 0xbd07a731bcc2fd58U,
  0xbd4744633d3acaeeU, 0xbecbd0d6bd23b94eU, 0x3cde0df7bd56639fU, 0x3ade6f733d2013cdU,
  0xbd71abd7bd6505d2U, 0x3e17311e3c8f3026U, 0x3d81a6f0bd63aeabU, 0x3db566d43e35a881U,
  0x3d5ccb4d3a58c7e6U, 0x3cd540ccbd5b845dU, 0x3d6725423dc019fcU, 0x3d9c09643d239ab7U,
  0xbdeef6723d5d4664U, 0xbd362369bdb32b62U, 0x3cce650e3ca99a22U, 0x3da04a783d442d30U,
  0xbd9989dabcd7a7e9U, 0xbe4263dabdc25e04U, 0x3d814fbbbb08efbeU, 0x3e06ccd93cfd7491U,
  0xbc8339533dcce3abU, 0xbda62c403d627388U, 0xbd25f0c8bb661748U, 0x3ca9d32e3e0ca87eU,
  0x3d073313bd5f6661U, 0xbd9bd2cf3db5d208U, 0xbd8d9e63be88aafbU, 0xbbb38f28be186c67U,
  0x3b8a573e3ca7d6adU, 0x3c9dcb85bd4a5176U, 0xbd0dfb75bda9bf54U, 0x3da936fbbe835f63U,
  0xbde85f343d13cd83U, 0x3c80dc023dd8829fU, 0x3c3d40153e012861U, 0xbddd50f9be099c0cU,
  0x3cc0bbaebdd054d5U, 0x3cb9da40be24e5d8U, 0x3da80c88be098905U, 0xbd864111bde4f73fU,
  0x3d1b2c2dbda24669U, 0xbc2faa0b3d25fa9aU, 0xbdaa86dbbe1de3f3U, 0xbe38da2dbdd8edc0U,
  0xbc25498a3d9e9e9eU, 0x3d62cdc0bd980efbU, 0x3dcf3e52bbf8a9abU, 0xbca3101dbea0065cU,
  0xbe7fa239bcb8f74cU, 0x3ce6350ebd54c4deU, 0x3d4b91743cdabb1aU, 0xbdd306abbe1022d6U,
  0xbd3aeedebd988126U, 0x3dfe4bcabe22f739U, 0x3e46d119bde1314eU, 0x3d99029fbe26bb31U,
  0xbd3c3cddbdcd4ae4U, 0x3e2fede33bfb4812U, 0xbd949f5fbe552927U, 0xbdd8502b3e08a99bU,
  0xbe98548fbb7c8abcU, 0x3dd4ef04bdfd3fdfU, 0x3db198ceb93eaa00U, 0x3dca9b7b3d1dbe0fU,
  0xbe3bb66c3d2d8780U, 0xbdfe63a8bd88fdceU, 0xbd875b1d3db776bbU, 0xbe300795be0423cfU,
  0xbcdb4e63bd914e8bU, 0x3e11def23dbd1d30U, 0x3e78ee8bbd4a2125U, 0x3cc9cceb3ccaff2bU,
  0xbd8bcee7bd98584dU, 0xbcde7ac83d89cc84U, 0xbca88869bd5f9de2U, 0x3d87a8673d1d7815U,
  0xbcf8af3abd106d95U, 0xbd0908613bd0cf72U, 0xbc6c19f0bd8b5948U, 0xbd3800c2bd871238U,
  0xbb5427fa3c1b3334U, 0xbd108a6dbbfbad52U, 0xbd16a46dbca6176fU, 0x3dba6867bdcc1873U,
  0x3cf7f6ce3d3bfe39U, 0x3d8734403ca5c73fU, 0x3c05e1ed3d952e11U, 0x3d1851553c3a125cU,
  0xbe5f034c3d30af95U, 0xbcc4e16bbcac4078U, 0x3d8cbfe23d29c1ffU, 0xbc7ee6e33d62d59bU,
  0x3dfbb7333d5e1977U, 0xb94d952f3e073a9cU, 0xbd1288fcbd229e07U, 0x3daa5d963c78fcc6U,
  0x3d4d52b33d75f70cU, 0xbde929ffbd992c37U, 0x3c781b93bdb1ecedU, 0x3d7bc18c3dfc4935U,
  0xbab7f8e63d29ea7fU, 0x3cc1a952bdcb063fU, 0xbda373423d8c5b41U, 0x3d8344a03cb844eeU,
  0xbdede1883e0c4547U, 0xbda48d8ebc6f89ffU, 0xbcf046503d31a248U, 0x3e0b31cfbd5a9739U,
  0xbd251fe53c041158U, 0xbd9ad0523e1136b2U, 0x3cfc63e8bcbfb2b5U, 0x3c40388abdf62f05U,
  0x3da188173d17688fU, 0xbecf3f863d83524cU, 0xbd218580bd3216bbU, 0x3dbc1207bc4f457dU,
  0x3e5868d4bde4ed77U, 0xbdbec602bd8ab311U, 0xbde9e05dbdc960eeU, 0x3a11acefbbf4cc48U,
  0x3d4c627e3e0b30eeU, 0x3e062fc3bd518357U, 0xbd7c8f32bceea491U, 0xbd745fb13dd2e7fbU,
  0xbe0f67b4bdde41efU, 0xbcc173e7bdbb5fdcU, 0xbcfceda13bdce171U, 0xbd93012c3db022edU,
  0xbc8826d3bd93c7a5U, 0xbe1955d8bdb09f89U, 0xbe10f9f6be8cc8afU, 0xbdd73a4bb98d7618U,
  0xbe618609bdcba320U, 0xbe1b70263d62f18fU, 0x3d069aeb3d15dcdbU, 0xbd1b67223c6706ffU,
  0xbe26acbe3e3242f6U, 0x3d13f5fdbca19b6fU, 0xbd945edc3e0f83e3U, 0x3db9f0743e45f5feU,
  0xbcc3efafbd8e86c6U, 0xbde2e1913e1837d4U, 0xbdda5956bb480b42U, 0xbdb08f513ddfa3e0U,
  0x3e5d4a1abdc95d48U, 0xbd2fb534bc626807U, 0xbc9ef86ebe48a2c2U, 0x3db349d73e38fd47U,
  0x3da006a73b3047ffU, 0xbe846f133d7896efU, 0xbd882cf33d2426afU, 0xbd1a4e883e5adfc6U,
  0xbeb17b2f3def45c5U, 0xbda0bc38bd2c1c88U, 0x3cec492c3e09a3e4U, 0x3d2bee313e03eadaU,
  0x3d5366053cd5b9e2U, 0xbdfa15d93e716474U, 0xbda478aa3ceafa44U, 0xbce88e333af1e6b5U,
  0x3d5894c43dbb6c3dU, 0xbe253e683d4bc916U, 0x3c7b21fc3deaf004U, 0x3e159b273e329665U,
  0x3dd6ec32bdc5f651U, 0x3d70bb4f3da9f6acU, 0xbe6b05db3c7ce1dfU, 0xbd3be61c3d7f56d7U,
  0xbe122771bbe9f1b5U, 0xbd3d43e0be358aadU, 0xbd314c7f3d200438U, 0xbd9846f03d6f7da4U,
  0xbcad246d3cf8a57fU, 0x3ad19a043d8c076cU, 0xbdf65cec3ca4af9eU, 0xbe0eaf62bc624f61U,
  0x3d80d13638a9f2feU, 0xbdcf1050be0a562bU, 0xbd9ed3b73da444bdU, 0xbce9bc10bd956f08U,
  0x3de1e981bd5d03c3U, 0x3d56e3fcbd056062U, 0xbe1e30aabd19811fU, 0xbc871c483de3e85aU,
  0xbe81b3123cfd0173U, 0xbc349f91bb14937fU, 0x3dae3a553d8fdd61U, 0xbe5888a3bd852d6fU,
  0xbc828fd93dc5543aU, 0x3d6e30fc3cfce6beU, 0xbc1cdca93cd12f96U, 0xbdbbf87abe15132fU,
  0x3dbe214abcc3c4fcU, 0xbd71bd81be2bec71U, 0x3d613de33b9ac0f7U, 0xbd39c9a83d847ec1U,
  0xbc37ab4e3ddab219U, 0x3dfa97463d9bf486U, 0xbd8815943c7bf752U, 0x3ddf68e73de26e38U,
  0x3d8857893d986d4dU, 0xbe015b573d3a2cf2U, 0x3d8263c93ded1df1U, 0x3cc0e010bdab6132U,
  0x3dbb35a0bcb86e77U, 0xba6848aa3c65de89U, 0x3cf3ecd43df65e53U, 0x3e203210be87b3e7U,
  0xbe162d213d2c7e3bU, 0x3b973b083d39db45U, 0x3e0f77b7be39f7fdU, 0x3bb8bebf3e2a5b7fU,
  0x3db271703e015c6fU, 0x3c9ef8f7bdbbed18U, 0xbe03141a3e357f40U, 0x3e0a64da3c536734U,
  0xbe228b273dc77895U, 0x3e840b29be2388f6U, 0xbd9cb0483d2f0026U, 0xbe9642cb3e5d726eU,
  0xbd186b33bdcb0012U, 0xbdeec02ebe30b880U, 0xbe242410bdadf414U, 0xbe6ea5843e4f65e5U,
  0x3e358ebfbe2bf5deU, 0xbdbce491beb41bf1U, 0xbe314f7bbdfde048U, 0xbe0f31c53d113315U,
  0xbe17e90dbd99aafeU, 0xbe29443a3e55e3d3U, 0x3dcc856b3ca73141U, 0xbe2739fa3e09dd5eU,
  0xbddcb7af3e58ea9bU, 0xbdea0dedbe1ca583U, 0xbd06b0a63b44b7f0U, 0xbe593561bcda3182U,
  0x3de71f44bd052979U, 0xbb808368be838978U, 0xbd9b9abdbd18d872U, 0xbdd7f4a3be236d24U,
  0x3d8ffb2cbc1e0b82U, 0x3cc0b2e2be4dabb5U, 0xbcf77474bde562aeU, 0xbd4231383d6f71b7U,
  0xbeb4e8d2bd49c988U, 0xbc97c326be0cd12fU, 0xbdac4856bd76dcceU, 0xbbcbb1fbbdc07c41U,
  0x3e67f9e83d489176U, 0xbe6f581a395d9d72U, 0x3dbf814fb946d3d0U, 0x3e67e24fbdfd3d22U,
  0x3e067444bd7829c3U, 0xbc8a2d4ebcc5811dU, 0x3e1b36f7bc5daefdU, 0x3e1d1d25bec3a539U,
  0xbda6c6013d3f6878U, 0x3e56ff823db20f8eU, 0x3dbb8030be66df63U, 0x3e2f28393e24e35bU,
  0x3dd334c43da4b84bU, 0xbc7f8c2bbe360a2eU, 0xbe4689283d151bc2U, 0x3dc4a130bda11d02U,
  0xbeb30c22bc4288ceU, 0x3d8fd4bebd70408aU, 0xbda3427fbe2f4487U, 0xbd92e7b4be0ae47eU,
  0xbd94c0eebd90c6daU, 0xbd0050db3d25bbecU, 0xbd817698be084497U, 0xbe8712e5bd83e291U,
  0x3c92bff73d24bd29U, 0xbd267531be60a05cU, 0xbb61eb843dfa2944U, 0xbd084cd1be419dc5U,
  0x3e14afb3be1ab0eeU, 0xbd7fa122bbef0f53U, 0xbd259199be757c9aU, 0xbcfd9ee8bdac5dddU,
  0xbe3ec19a3da7a064U, 0xbeb23e843c1680f4U, 0xbbbe913dbdb82014U, 0xbd6825a0be9ea55dU,
  0x3dacb3a23d8ce064U, 0x3cc805f4bd99dc28U, 0xbd9d49a1bd726993U, 0xbdcfaba5be64b2ccU,
  0xbe1bde3abd57b5afU, 0x3cf3f730be4c980aU, 0xbd3adf56bd832113U, 0xbdcad2a93d40e0d6U,
  0xbc2dc3383cf68d53U, 0x3d12c286be81e24dU, 0xbebcd976bd625ad0U, 0x3d44d452bdcaf184U,
  0x3e594a0cbd86431dU, 0xbe50b7293de6ff3aU, 0x3c2557a6ba5ce84aU, 0x3e237d47be1d670fU,
  0x3e3d3710bcd1dd88U, 0x3de597c83dff912dU, 0x3bd10b903d80cad6U, 0x3e0e68e8be103d90U,
  0xbd2caf643df2a30dU, 0x3e0d34d63da000d3U, 0x3da758c3be635951U, 0x3d472a4b3d17c183U,
  0x3d941d383ab8f598U, 0xbd787bd7be7c91deU, 0xbca18e233d747394U, 0x3d33f124be105d76U,
  0xbd9d0160bcb0da6dU, 0x3db887a23d9512baU, 0xbc636e3e3c8f878bU, 0x3db1d18f3d54df26U,
  0x3d63c6743c56f305U, 0xbdad578d3df446e8U, 0x3d553362bd292e11U, 0x3ca956343ddd770fU,
  0x3dae94723d46a261U, 0xbddb0a2f3dc65df0U, 0x3dc2b3ca3d9693cbU, 0x3d58ac3c3cca057aU,
  0x3e0d1078bd174a40U, 0x3d8ca74c3db4ce5dU, 0xbe1d73debd4ae25aU, 0x3dc936bf3d44944fU,
  0x3c091267bd81388eU, 0xba2849203c1b1a0aU, 0x3da35831bdcbf0eeU, 0x3daae292bd6d9e6dU,
  0xbc84a9b33db30367U, 0x3d1fe0483dd56b0fU, 0xbd9600a7bc3cc990U, 0xbcd2e4133dadf7bcU,
  0x3d8971de3db376e5U, 0xbce03bb03e19709aU, 0xbcb3bddf3e358547U, 0xbd6984b03ce622beU,
  0x3df27de13d993e4eU, 0x3d441ad33ce9ffc5U, 0x3ca20df33b1121c1U, 0xbd2456133c64d2d6U,
  0xbd855aa5bc275a26U, 0x3c1ab9acbbe466d6U, 0x3c8788dfbd44858eU, 0xbe0774e7bd448300U,
  0x3b25d5513e159d49U, 0x3e46168f3e1d669eU, 0x3cfca2c13c92978bU, 0xbd91f8f43d365f3aU,
  0xbc64fb5c3e14951aU, 0xbbfe740ebdbd4171U, 0x3d502cf13e625d63U, 0xbd90efae3da5a0d3U,
  0x3d9b5ce5bc8d7a57U, 0x3e6281023dd678abU, 0x3d4571e73d59d394U, 0x3db0dac13e12b38dU,
  0xbe79148fbbf1a4d4U, 0xbcb9e89cbe0ad74dU, 0xbd4f74553de9be39U, 0xbd566d2f3d807ce7U,
  0x3d9da8ffbe3c938fU, 0xbe21367abe2e5ed7U, 0xbde0f641bde12d25U, 0xbe41d1203e3e5a53U,
  0x3db785e9be4d43a9U, 0x3d129e25be04460bU, 0xbd3d8306be963da9U, 0x3d28f48e3c97dd4eU,
  0xbe22780bbd732a3dU, 0xbe7f35213d491b1eU, 0xbd534cd93cc14caaU, 0xbd504d473df8e494U,
  0xbceffe3fbc2b6d29U, 0x3e1fb323bbece176U, 0x3c9538773d6ad639U, 0xbbcd63323d29e9fcU,
  0x3d20c86b3c110e23U, 0xbcb9c58ebe4a8e88U, 0x3908f2103cd16fa6U, 0x3d2e87153dbcf974U,
  0x3d2bdd47bddb0131U, 0x3d287d86bbaeb4f3U, 0xbd55153bbd2a42cbU, 0xbd0b4790bd3eedb7U,
  0xbe11c01a3c0d7f11U, 0xbd9583883e17a6e2U, 0x3d7a75bb3d53aa00U, 0xbc0692c93df9730cU,
  0x3dea3233bd30322fU, 0x3e1e466ebdadd6b4U, 0xbe08132e3bca4a83U, 0xbeba836e3e1a10ffU,
  0x3ccaff7fbde0c771U, 0x3d57f3f8bea64e86U, 0x3da5662f3d585e22U, 0xbd4272da3c89c2faU,
  0x3e014c72bd861694U, 0xbd205f89bddf646aU, 0xbe04087abea3197bU, 0xbd2754d6bdaed6caU,
  0xbeef79b7bd7203b9U, 0xbbde8ef63e5bfefeU, 0x3e277099bcfc0adbU, 0xbc6adbb53e2b89a7U,
  0xbe861d3dbe6f3252U, 0xbdd5c918bda82f4cU, 0xbe4583f3be307d8dU, 0xbdfa62aebde81173U,
  0xbe606e79be49a353U, 0xbe62c042ba466fecU, 0xbda697ecbe17a0beU, 0xbe42b2fc3dbc0657U,
  0x3d757a3cbd9cdbf5U, 0xbe330bdfbdaec93cU, 0xbd8f8e223dbe77b2U, 0xbe5b449fbe59f869U,
  0xbd02c819bda90799U, 0xbe27727abdd93b31U, 0xbe534db6be580a30U, 0xbe50d6a3bd33b656U,
  0xbde0fa173d869a24U, 0xbbbcbc8abde80e58U, 0xbe50941cbddd3828U, 0xbe447fb23dd5ae37U,
  0xbcd1e10bbe12adb7U, 0xbe06e1fabd3a6123U, 0xbe8988bcbe17d08cU, 0xbe19cc5f3d598be5U,
  0x3dbc14e6bdf75a57U, 0xbd0a8ee7be4584ffU, 0xbe08dbf93cf44e01U, 0xbdbcb4213c7d37e5U,
  0xbda5802abe48cca3U, 0xbd9e38ff3d2a70e6U, 0x3da1e4f5be055f80U, 0xbe3bac8ebd5c30ebU,
  0xbe5fbe95bce59fe9U, 0xbe13037ebcf707f9U, 0xbd6a3686be32af09U, 0xbd96f9c7be09a90dU,
  0xbdf759e43c9300d8U, 0xbd0d251dbdf05d35U, 0xbe34add3bdfd6433U, 0xbe077609be1bdb73U,
  0xbe216cb1bdad9e1eU, 0x3c550605be4ecd07U, 0xbd081a773e561628U, 0xbe47f88fbdf51a18U,
  0xbd1ed468bd0b9a83U, 0xbcac28f4bdb2d83fU, 0xbe1941c3be2c55caU, 0xbd354b65be45e9dfU,
  0x3da944dabe0d4c4eU, 0xbd93f9fabd1eb354U, 0xbdcf650c3bd85563U, 0xbd57ca19bc7341f3U,
  0x3d08cd3dbd3eae38U, 0xbda602cdbe4aa9ccU, 0xbdc92dd1bdc54b2dU, 0xbd0b4b4f3de64179U,
  0x3d89e5dfbdd3a088U, 0xbd303ffabca7b7fbU, 0xbd3c83d6be8cb07eU, 0xbc8063b4bd21a79eU,
  0xbd25b248bd9b3326U, 0xbe3e4a533d90a0c4U, 0xbd6ccb86bdd94b21U, 0xbd5dea42bcee1d19U,
  0x3dda5f883d4184b1U, 0xbd6eb074bdc549afU, 0xbd27fd73bdb22c95U, 0xbd264ab7bd3e0e25U,
  0x3d7e8964bd2799afU, 0x3c49f549be6e06b7U, 0xbdeb715a3d755439U, 0x3cdad6b0be368d7cU,
  0xbc8cfb9ebe154c4fU, 0x3e47b5323d49da7fU, 0xbd7f2211bd13626eU, 0xbd1ff1713cc1e4f7U,
  0xbe241da6bd40a517U, 0xbd57dc14bdab7dcfU, 0x3d1c89f33d918fa3U, 0x3d48581f3d5679c4U,
  0x3defd030bda99f33U, 0xbdee15f93dd61df8U, 0xbc0d78d2bcdb6163U, 0x3d894ffabe3da27dU,
  0x3e552340bd4ae750U, 0x3e26223cbe0f3a00U, 0x3e32f6663dba07c8U, 0x3d866e79be83cf5eU,
  0x3d209e5d3cf9b611U, 0x3e7c38a0bd0ccef5U, 0x3e15ccdcbd49ac36U, 0xbd085ea73df970acU,
  0xbe5ea3f33dea18afU, 0x3d8c3afebe47ba49U, 0xbdba0aa33e0eac46U, 0x3d9c46f5bd997559U,
  0x3bc24528bd247d56U, 0xbcfab1e33ab0cde8U, 0xbe27a56b3dbc06fbU, 0x3dcec8fcbd708c38U,
  0xbd9cbfb4b7d35154U, 0xbd8b76d7bdabe4f5U, 0xbdc22fb1bd389cd2U, 0xbcb6ab30bc42714bU,
  0x3e0e588abd3fc062U, 0xbca812f8bdc96e87U, 0xbe3eeea73e15a463U, 0xbd707d83bd69d201U,
  0x3e01bd22bd81ca32U, 0x3dc99682bd78b369U, 0xbc62922abddf19f7U, 0xbd9325483e177c3aU,
  0x3d9390b83d6d887aU, 0xbe2060ccbe14a5feU, 0xbcfc19ae3d130ff9U, 0xbda9dc39be64717fU,
  0x3e357299bd1d786bU, 0x3e2eb015be86cf8dU, 0xbe3f2290bd3eefffU, 0xbd45b7d9bdd2f09aU,
  0xbdaf05d9bd46d6e1U, 0x3de5e3a2be0c1b53U, 0xbd878932bdbfb8f2U, 0xbd17ce213dda4184U,
  0xbe02310abce1d147U, 0xbd99b5bcbe0a72bfU, 0xbe355435bcf8194dU, 0xbd4236a4bd477009U,
  0x3e5e95d13bdd9e9aU, 0xbe58ab4b3dddb6b2U, 0x3cf179773bafe172U, 0x3d878901be9260bdU,
  0x3e387738bd45f6d0U, 0x3dae5061bae8c146U, 0x3de18e6a3de7ae66U, 0x3d61259fbe53a1b6U,
  0xbd8aeb90bc823149U, 0x3e11c59a3d21f365U, 0x3de51fe7be791490U, 0x3dda15fd3c82a70fU,
  0x3c45a2143e169d0bU, 0xbddb8c60bea81aeeU, 0xbe3a2eb63dd71c72U, 0x3d2426c1bc03a57eU,
  0x3d5386cd3da8e6caU, 0x3e3a60ddbe5ad1e8U, 0xbe0397d33e7542a9U, 0xbc36916b3e0e29a4U,
  0xbd0b0c74be33120bU, 0xbd23fc78bddf2a80U, 0xbe114056be6f6cb0U, 0x3c4b80453d208309U,
  0x3dbb9396be3a887bU, 0xbcb9ba2cbe1cfe3cU, 0xbe1f8853be04f316U, 0x3c605e103dfec22cU,
  0xbd8ee351be241de2U, 0xbdad9fa53e09a29bU, 0x3df9e8fbbdc52701U, 0xbc613d1f3e26a95cU,
  0xbd4a24cc3de93041U, 0xbdbbabe5bde4a221U, 0xbc2571b83cea4829U, 0xbcd9da72bdcb64abU,
  0x3dea443abcd7a120U, 0x3dcb6651be78758dU, 0xbdb7117dbd9c0555U, 0xbe163675be0f24ceU,
  0x3c28d1d1bc2677f5U, 0x3e10ef7bbd7dbf44U, 0xbd928944bdf3ede1U, 0x3d724b2b3dd0a9a9U,
  0xbd8f8059bd02ffbbU, 0xbdad8078bd64ad88U, 0xbe0f03c1bd476e26U, 0x3d8df4b9bdc7f271U,
  0x3d2d3418be161732U, 0xbe2eb4193c251ea7U, 0x3dfe9304bd772cf3U, 0x3e2442d3bddbe8d6U,
  0x3daac1993d6d48aaU, 0x3db59e5dbcc2cb55U, 0x3c5da30e3d5da628U, 0x3d1bf79ebd181736U,
  0x3d8851333cf7a01dU, 0x3e8135d1bc828131U, 0x3d1df1fabe3379f1U, 0xbc343f323de13c67U,
  0xbd3accaa3e0d4a53U, 0xbd730cfcbdffd827U, 0xbdd91f723d9e4775U, 0x3b241dd8bcfdc442U,
  0x3dde1eb63d59396dU, 0xbe86c34d3ce316a6U, 0xbb749b79bdc20b9fU, 0xbdec2891be9fa024U,
  0x3e0606013dea17baU, 0x3ccf789fbc38ac90U, 0x3d08d3a2bd07b6a4U, 0x3d01b032be760c14U,
  0xbe0befdcbb43b88bU, 0x3e35eae0be12a089U, 0x3d61e15b3c74c91dU, 0xbd977228bd85be19U,
  0xbe469db43dd27f18U, 0xbcf8e057be4b7484U, 0xbdda9fa43baaa023U, 0x3dac195bbe262821U,
  0xbd3e6a88bd883eacU, 0x3c998f01bd101bb9U, 0x3db15d0dbdc4cdb0U, 0xbb4a1426bda30fc0U,
  0xbdd378edbd70a4e7U, 0xbd095a543d2dd24eU, 0x3c6f0058bce80dc5U, 0x3da02d99be6a3d81U,
  0xbe5d6ebd3d72f4c0U, 0x3d002a39bce8025eU, 0xbcaec9f63c8b9317U, 0x3cbe8ae7bd8dee0eU,
  0xbe2f64883ce1d0acU, 0xbc51029fbcf9f563U, 0xbc9e8fe23cb751e8U, 0x3cf22d06bc9a237eU,
  0x3e338f503d696756U, 0xbc392812be0a3474U, 0xbdb87d8a3cf7f9f5U, 0x3dbb71c33c8e01faU,
  0x3d8e59533aeead09U, 0x3d277836bdd480daU, 0x3d913ec93d637007U, 0x3d8c4c93be4d7720U,
  0x3d572184bda48cafU, 0x3be7cf43bd18acb7U, 0xbdca0b1abe71b7f7U, 0x3ccfb8af3daff2cdU,
  0xbe5d0df1bccb77c8U, 0xbd6e360dbd30d300U, 0x3e5dcecf3d948778U, 0x3d8fae24bc954346U,
  0x3e23d4b7bdd60167U, 0xbde4e66f3d4a985bU, 0x3d9c6691bdfb63e4U, 0x3d7d1948be33083cU,
  0x3d8d461ebd92ed7bU, 0x3db9782ebce3eb4eU, 0x3e2590363d8aea08U, 0x3df41a15bebd26a4U,
  0xbe9cb90c3d75bde0U, 0x3dfad16fbd8c605fU, 0x3dadecda3d68c27cU, 0xbd68c614bcf693b4U,
  0xbd89ba603d6209dfU, 0x3e03fb3ebe527319U, 0x3e0244b63e173824U, 0x3be3e536be30a98cU,
  0x3df2c4033ddffd90U, 0x3d251f39bccb5463U, 0xbd37729cbd53e8c9U, 0x3d91e0e1bb00cf3aU,
  0xbe4b0b89be0b6dbcU, 0x3bb97ce8bd941115U, 0x3df0fbdf3c4cf72cU, 0x3d0bceedbe6ed46eU,
  0xbe1e5c0c3d352ab8U, 0xbe824324bd4616e5U, 0xbd207550be1babc1U, 0xbd260d62be1109f8U,
  0xbe1a4114bd4f167fU, 0x3c83b45b3dbf3756U, 0x3e003c4fbd83b8b0U, 0xbc8f8d19be182ee6U,
  0x3da068eb3e472684U, 0xbd96c4263d3936a6U, 0x3cb75a823db77ac1U, 0x3e29ab8a3d1f3877U,
  0x3e175a30bc24d57bU, 0x3c50880a3d549da1U, 0xbdad3f94bdf79e29U, 0x3d452bd2bda01b8eU,
  0x3d43094fbdc2cf0dU, 0x3db3caa23e0651e9U, 0xbca02efebdb0b999U, 0x3df80bf33d2efdd3U,
  0xbd5cfbb83d457311U, 0xbde7f4b03cb2d597U, 0x3d19878ebdd42b90U, 0xbc90ed973a5b41aaU,
  0x3e27bdeb3d9b6983U, 0xbd87bdc53dc0490dU, 0x3de230a7bdcc01f3U, 0x3de6e3a1bdb179d2U,
  0xbbadc8ad3d69aca6U, 0x3cf835f53c21d46eU, 0x3e0f4c4e3d814ba2U, 0x3e2300bbbea9ad3aU,
  0xbe409bc1bd1dbb03U, 0x3e00a10c3d137d3eU, 0x3b4198f3be5b6516U, 0x3e078cf5bd18e43cU,
  0xbdf8aeb43d1a8870U, 0x3cd6d3c6bdd2321dU, 0x3def22bfbc644a17U, 0x3c430590bd377903U,
  0xba6d9360bd97a3ffU, 0x3ccd07e5bb4a1a57U, 0xbd8bcd8dbda96dd5U, 0x3ccfcf94bdc36484U,
  0xbe8805143d6f8d20U, 0xbcdba149bd0d579aU, 0x3c2fe0663c001ebfU, 0x3b5a1595bdf668eeU,
  0xbe22a5353d2aaaeaU, 0xbe9c83183df72d72U, 0xbe1825e9bd555e69U, 0x3d1ab7c6bdead574U,
  0xbb92c52dbd1a62f0U, 0xbdb3f06abc851a2bU, 0xbcb59d47bdac78d5U, 0xbdbdbe2dbd3eeebcU,
  0xbd2592dc3deb856cU, 0x3cc873e3bdab4671U, 0x3d4804013d8b66d9U, 0x3b14c3153e111efeU,
  0x3e39004ebdaf013dU, 0x3ddbbcd3be0300bdU, 0x3d41f41dbdc1668bU, 0xbda6b2173d99728cU,
  0x3d7eab21bda7bb83U, 0x3e0a5bbbbd8e3e20U, 0xbc85d70fbd2c32ffU, 0xbd21a86d3e15533cU,
  0x3c74e15f3cda8ae0U, 0xbc0e2c613e1ce99fU, 0xbcefd1f63d37fa56U, 0xbd538e693e371852U,
  0x3c3d0312bd3bf2b5U, 0xbdbe99333d152847U, 0x3a8c1b2c3d52181fU, 0xbd22f5fb3d66838fU,
  0xbc10fc1e3d4917d3U, 0xbdace8153bad84c3U, 0xbd0dd4ab3bb58fcdU, 0xbd37574bbd38265cU,
  0x3d1399bfbd14b916U, 0xbdc589cf3ccdeeb0U, 0xbcc34a81bd0948e1U, 0xbce9ccc1bb8279b2U,
  0x3c8dc79bbd85b977U, 0x3c5059473cc95799U, 0x3d5d30febd0885aaU, 0xbd436a9e3cd74e34U,
  0xbc1a1017baec4896U, 0x3da5a60b3d20cf41U, 0xbc61c46dbd1d7466U, 0xbd9cadfcbd90513bU,
  0x3c291459bc91f14eU, 0x3cf13a8f3d13c7b8U, 0xbc2bd3afbd547fe8U, 0xbcbfb76e3cee5ea2U,
  0xbd1132b23d078f45U, 0x3cf8b4203d6a48aaU, 0x3d14f179bd1ad3d1U, 0xbcaf54983d8c765aU,
  0xbd8638f0bd65d1f8U, 0xbd908df2ba69d083U, 0x3c13440ebcdebcd4U, 0xbdb76841bc288dffU,
  0xbd4d71f93b746be4U, 0x3ce4906dbd95af28U, 0x3b7845bf3d8c2290U, 0x3d4e657c3cc3db85U,
  0x3d82276abd5a5ad1U, 0xbdb7fc60bd52d974U, 0xbcce9b713b8d9812U, 0xbc9d18c63d22c71bU,
  0xbcccb3e83ca6ab84U, 0xbd816a8fbc233e82U, 0x3b217ddebc8aa414U, 0xbd96019abd0c88f3U,
  0xbda46ffa3cd717b1U, 0x3d60e28bbd5523aaU, 0xbd9b5f5abd0ef60bU, 0xbc906318bbaebbd8U,
  0xbd991aed3d16254aU, 0x3d59156a3ce63feeU, 0xbd13ffa4bd529517U, 0xbd12af053d71cfb5U,
  0x3d884f72bda935e4U, 0x3d012b4d3cd52c4dU, 0xbd84076e3c552f4cU, 0x3d1d4b03bd92902eU,
  0x3ca22e2a3c7c18a6U, 0xbc593da13d8a1febU, 0xbd348cbebd90b72aU, 0xbd40c22ebd2e7ab3U,
  0x3c4e037ebd8b9df1U, 0x3d91e74dbdb49b0dU, 0x3d5e3482bda6f23fU, 0xbbbdb3f73b27378dU,
  0xbd99265cbd38c49fU, 0x3d26ad783d8d17caU, 0x3d4fa2bbbb1b2d57U, 0xbd664e4cbd490135U,
  0x3d3cd08c3d9c2416U, 0xbd750f7ebd59e5caU, 0x3d0b3708bcc31bf6U, 0xbd552dddbbb2f0d3U,
  0xbc92380bbd243d18U, 0x3b20dfc53d83fd4fU, 0xbd98079b3beb5720U, 0x3d4d60513a1a1276U,
  0xbd33140f3d9b0bc3U, 0xbda9b25dbd15e322U, 0xbcd34a823d8c4d33U, 0xbd8a62c1bb1ce87cU,
  0x3d9e98b9bd0f97d1U, 0x3d2af6c5bd932564U, 0x3d893852bdb42edeU, 0xbd51345bbdab18caU,
  0xbc94fb8bbd55f468U, 0xbd5816c7bcf3c5bdU, 0xbc985800bc4d9febU, 0x3cb34f523c08a0f5U,
  0xbd6f25a1bd9caa00U, 0xbdae1bae3c73f57dU, 0x3d87eb69bd350663U, 0xbdba10653c962683U,
  0xbc2583c53d6c8c5bU, 0x3ae7af39bd41477aU, 0xbd756ae8bd93948cU, 0x3d634c0f3d7e631dU,
  0xbd196802bccc9880U, 0xbd49d39e3d9a70d2U, 0x3d8cab1e3cf62955U, 0x3afd56a23c4b160aU,
  0x3d38e541bdb5d3acU, 0x3d8127363baa8acaU, 0xbd4163d1bd702c5cU, 0xbd4bd9a5bd8853f5U,
  0x3d314914bdaa2e26U, 0x3d4788e1bd8a88d4U, 0xbd7be3f23c1c55b8U, 0xbd45bdb3bdbb74dfU,
  0x3d861fa7bc71e745U, 0x3d5b13fc3c30c46aU, 0x3cde6414bca5732dU, 0xbc45c3ef3d27dca9U,
  0xbc32e9ab3d1718a2U, 0xbd5da0533d2872f9U, 0xbc993d30bd81c1ecU, 0xbd5731ddbd3d331fU,
  0x3d97b0163d63fe5fU, 0xbdb1d3453d59cd86U, 0xbd7f56fb3cc863ccU, 0xbd1c3e61bcf2e2a8U,
  0x3d183c8f3cdbd97bU, 0x3d0f55bc3cb194b4U, 0x3beaa6683d2588d7U, 0xbc716e873d80fac9U,
  0xbd1934d43d279c5eU, 0xbc6e26edbd222d3aU, 0x3b43eefcbcfa80cbU, 0xbd0dc4103da0323bU,
  0x3ca1ce24bd1b520cU, 0xbc25f104bcec22e7U, 0xbce28131bdaa8f08U, 0xbd13549bbc6fbec2U,
  0x3d2ada243c8fc798U, 0xbce2ae18bd56c550U, 0x3ca5cd2abd91483eU, 0xbdae3befba47bbeaU,
  0xbc9c6cb9bd730289U, 0x3d716bb3bd889940U, 0x3c1314923c78a2d8U, 0x3c807a6d3c7f006bU,
  0xbd8f008dbd71ece4U, 0xbd82ddefbb512473U, 0x3c199cecbd8d45d1U, 0xbd0a474b3d27fd87U,
  0xbca04c3abe53e38bU, 0xbd238533bd895c5cU, 0xbd781f20be769700U, 0x3d2646a4be4d90c3U,
  0xbcceb529bca0c0dcU, 0x3be2285c3dbaf10aU, 0x3e0259493c4d27c1U, 0x3e411a7ebea5f8a4U,
  0xbebb0b7d3dd89f75U, 0xbe15d23dbdb8bd3cU, 0xbd80031a3dd7f6aeU, 0xbda05a4ebe245425U,
  0xbd8233d93d78b057U, 0x3dcb0584be15bfbbU, 0x3c76ef0b3c8c7358U, 0x3d241f85be7a0f84U,
  0xba3e9ce73ccd7359U, 0x3e1fbf013d356a21U, 0xbd4afff6be1b630cU, 0x3c8b13bb3c7ceeb3U,
  0xbda3cdbdbca48a85U, 0x3dc9e31abc2a6dedU, 0x3e41eae4bd43baa1U, 0x3e339985bdc5bdadU,
  0xbdb35d6dbd846febU, 0xbe191b96bbeaa052U, 0xbd71ba0a3e208e53U, 0xbdfd3035bd2600c0U,
  0x3b3d2828bd9307e1U, 0x3dcb2bfe3e137eafU, 0x3ea537b63d839492U, 0x3d5faaa8bb9dc04dU,
  0xbdd65eac3e86a33aU, 0x3d2dc7993d5cf247U, 0x3d1933d43db92475U, 0x3d9f215f3e32be38U,
  0x3df5a8cbbdb9d20cU, 0x3dbca93ebe085282U, 0xbcb0d617bd812b46U, 0x3cdc1559bdb92bfeU,
  0x3d0b367abd984301U, 0xbd224f553d9fca43U, 0x3d303d98bdee5541U, 0x3d48817d3df41b59U,
  0xbe1478d23d38e7ffU, 0xbd56236a3e06cc34U, 0x3d7a47873a5641f4U, 0xbdb2339d3e1205c6U,
  0xbe823698bd58330dU, 0xbe08636c3d950159U, 0x3da4eda03e0fdd70U, 0x3d6886333d409f1fU,
  0x3d1f698539690040U, 0xbe22777f3d5bf6b4U, 0x3d1862b53af31ce1U, 0xbc213518bb9cf1b9U,
  0x3b391421bd33fd5bU, 0xbde0eb253d327c01U, 0x3d1973debe400cebU, 0x3d8080973ce6b712U,
  0xbe0555c13c80cda1U, 0xbd8321cbbd8103a0U, 0xbeb149f6bd4844bdU, 0x3bc4e6ce3c466f08U,
  0xbe72df08bdda3627U, 0xbe325e113d8fdc89U, 0x3c1624593d8d8160U, 0x3d4a59d1bd582d72U,
  0x3d7d6ba33dba7bbbU, 0xbd2c9a533dfa5de3U, 0x3db52c67bdc6f6c2U, 0xbd81d9fdbde5c16bU,
  0x3c4023243db5de58U, 0xbe8c836a3e1d9ee5U, 0xbd9354483b910f82U, 0x3d5e3b0f3d9a648cU,
  0x3e162259b97f2d5dU, 0x3dc1b774be325213U, 0xbe699d06bd529cf0U, 0xbdb243703d723ce1U,
  0xbd7575763da1d42bU, 0x3da4c63ebbf3534cU, 0x3d0553863c728df6U, 0x3e145b7a3df32904U,
  0xbd033561bd8a93f7U, 0xbce323fc3cf6906bU, 0xbc1c1d3bbd01dd2fU, 0x3de98845bd6659b1U,
  0xb9281b883d5b9bc4U, 0xbe1139523c4fc675U, 0xbce64d0d3b88910dU, 0x3c5707f83d2a3c53U,
  0x3e3864a0bdc60be3U, 0x3d05c2a93daf0598U, 0xbb853aafbc954a55U, 0xbd9b79cb3ddf11c1U,
  0xbea893573d30cd3aU, 0x3dbc4bafbd78b549U, 0xbd2b41cf3de28d71U, 0x3dad4b533c48ebeeU,
  0x3c08269cbe032f83U, 0xbda0e28d3d8062f8U, 0xbd83ae753c38eddbU, 0xbe0913103dc8123bU,
  0x3d971920bde19624U, 0xbe94a3f1bde03a0bU, 0xbd59416abe27e282U, 0x3d2120743e1c00f7U,
  0xbdf6013ebd80db71U, 0xbd231fa53bf31337U, 0xbe07c557bc959343U, 0x3cef32753e06b175U,
  0xbedc4e383e00e352U, 0xbc806e983a987c28U, 0x3d0114bf3e631e0fU, 0x3e02de213d490c3cU,
  0x3e7997aebd8edf24U, 0xbdd76f7a3e2c3dc6U, 0xbcd07f1dbd779185U, 0xbd8a57f13df50332U,
  0x3e3b39eabd9b4fd6U, 0xbdc3ec9d3c4a65ebU, 0xbce8c188be023a18U, 0x3e2c35dc3e826fd5U,
  0x3e05a3563c9cf1d9U, 0xbd85ef8cbd56fd02U, 0xbe2aa8d1bcf85baeU, 0xbd5f5ccd3e131d09U,
  0xbe8025e43de12333U, 0xbd8e33bb3d59ddf7U, 0x3c4aab3b3c0e963bU, 0x3dc2181cbe10f1a4U,
  0xbd33411c3df426d3U, 0xbd0b19833e0f3cffU, 0xbddfe2133da42b7bU, 0xbd7748e0be16a80dU,
  0xbe285df73df8dc80U, 0xbdc927f23e04bd38U, 0x3d688ea83e15d4e5U, 0x3db7b61c3e019375U,
  0x3e7951843db22e2aU, 0x3d387e55bddb0e01U, 0xbe6ae0363d37f5d2U, 0x3c2decdabd9b83c9U,
  0x3d8aedffbe43f711U, 0xbdad79163e0623e8U, 0xbc29b5423d4d1faaU, 0x3e587bebbd9815b2U,
  0x3e746a013d06350fU, 0x3e2842c13d0912b8U, 0x3c23c26b3d87cb9dU, 0x3e085b96bc774eefU,
  0x3dbc74e83da506e8U, 0x3e54415e3ddfc18cU, 0x3cf05fecbd8f82c0U, 0x3e0ac6343e016058U,
  0x3dd0986d3dff9284U, 0x3ce878f7bcc6a8b0U, 0x3c3494ce3e21bbacU, 0x3e0fb8babd0f59eeU,
  0x3dd58f9ebdab6195U, 0x3d0381b03db8f299U, 0x3d7f3be73d7bfe37U, 0x3e3249a6ba85ab27U,
  0x3de92ccd3a7d068aU, 0xbdda26fd3c4ca792U, 0x3d0015943d7049f7U, 0x3d3a49203dac68deU,
  0x3db10f14bc0c6846U, 0x3da125ba3d3ea53aU, 0xbdab6e97be5e32b3U, 0x3d712dcabba409eaU,
  0x3db4f9113b1d3e38U, 0xbdf0c1e9bd8614beU, 0x3de6fbe8bd9a6ef8U, 0xbbcbb229bddb97dbU,
  0x3c4b92efbdbb6ebbU, 0xbdfa190dbda2c206U, 0xbd9197c4be010a3dU, 0xbdebd3a8bdb5fcc8U,
  0xbdc385f8bdc12351U, 0xbeb979dfbdc0c4c1U, 0xbdef71b4bd9c1036U, 0xbd66b0a1bd2136a5U,
  0xbd871fe6be520c36U, 0xbd7a53c1bd125d1fU, 0xbd820677be9ca4b9U, 0xbe2fcb81bd2f1992U,
  0xbe2bd28cbdb44205U, 0xbecb00dfbd11651bU, 0x3d1ee3edbd826d95U, 0xbdbcc29abe3add97U,
  0x3e2865453d4ce329U, 0x3e08466fbd783326U, 0x3d014b7d3dac0fccU, 0x3d8e57ed3dee701cU,
  0x3d074d28be02a860U, 0x3dbbae2dbc04d30fU, 0x3d4b44cd3d25f44eU, 0x3d8efd543dcabd50U,
  0x3d0463c9bbc6fa01U, 0x3d0c6e81bd66f61aU, 0xbc5f7e4fbea04b4bU, 0xbb9c42163cc1a5edU,
  0xbdce72043d1fad61U, 0xbc8b2bfe3e33f389U, 0x3e38ab813df9d2c5U, 0x3ce78f903c869c1eU,
  0x3e0219073d02927bU, 0x3d85c3efbe0cafc5U, 0xbdf701bd3d9e95efU, 0xbd82aa913d40cea7U,
  0x3a931482be165a03U, 0xbe1d2450bc95f10fU, 0xbce2dd51bd87d1b9U, 0x3c8564a4bd066d38U,
  0xbcd877dbbde2a79dU, 0xbd66b71cbdb86967U, 0xbd36bd9bbe00de45U, 0x3d2ecbf6bdb15661U,
  0xbdbe0e95bd2e6f1dU, 0xbe1bcb1b3d7bb88bU, 0x3dbd0822bd99906dU, 0xbd9acf1abc268f95U,
  0xbdb79f91be385e02U, 0xbe84e314bde29dd0U, 0xbdc07908be28b201U, 0x3c295888be511e82U,
  0xbde59ee2bdb58465U, 0xbd372cc2bd6d4562U, 0xbe4d3442be4cee09U, 0xbdd4b426bdf6d8adU,
  0xbea74c28bd943fb1U, 0x3d484d74bd635f71U, 0xbe2b928b3dbe06f2U, 0xbd9fa8b1be4f8e24U,
  0xbdc34208bdd0ee0eU, 0xbd9dbda5bdc484a0U, 0xbe47045cbd93fd44U, 0xbd226f24beba4f99U,
  0xbd6a23853e32b34dU, 0x3d2814adbce24c87U, 0xbc8fd2e93db197e4U, 0xbd66f7a23e2d1fe7U,
  0xbe4ead82bcad91aeU, 0xbe4cd20ebcad4417U, 0xbdce5b2ebe1afa4fU, 0xbd2ddd5e3d9b2196U,
  0x3dcb09663d29ce60U, 0xbd8c82e5bd61b9fcU, 0xbe03292f3e1ba55cU, 0xbdbd1fbebe0ea9b3U,
  0xbcbce8b4be13340eU, 0xbe2bfd2a3d2e54bdU, 0xbdf6ed03bde129b0U, 0xbe287f97bd421762U,
  0xbd4760fbbba6e371U, 0xbdd9db7cbd9cc9b6U, 0xbe29286ebdeea75cU, 0xbdf83653bd8a2561U,
  0xbc3e4c013cd95ee2U, 0x3dddd57ebe217a7cU, 0xbddab1c3be27455bU, 0xbe071506bde0f72aU,
  0xbd301eb8baaba28fU, 0x3e25cd1abe1c3708U, 0xbe428574bc8b8a04U, 0xbe7c050cbd50a69aU,
  0xbdb74f30be44535bU, 0x3c8cbbf8bce529c3U, 0xbda41fadbe5595a6U, 0xbda89dcfbe137c1cU,
  0xbdcfa019bd6e4bf3U, 0x3ce4da11be2d8de0U, 0xbad112793b2e0290U, 0xbd7553e53c69abb9U,
  0xbc17e0abbe16a6eaU, 0x3d38d032bd9c6356U, 0xbe1695c3bdd8a0bcU, 0xbdf1d9073da05bb6U,
  0xbe1422c6bc7f781eU, 0xbd2bf9febe406bd9U, 0xbdcb5c1c3b2a37dbU, 0xbd13c4023cac8f63U,
  0xbde76539bdbb51bcU, 0x3bc64a67bd830aecU, 0xbdea1476bdc0b210U, 0x3d4f9ef23d08f949U,
  0x3ab7e06abe28412cU, 0x3b96f6843d815363U, 0xbd6081c6bde876baU, 0x3da3fa5dbe27782eU,
  0xbe07c3913c4b47d2U, 0xbd6b368a3de51813U, 0x3c60fdb7bd0ac352U, 0x3dd1932bbe8aafc5U,
  0xbe83dcfbbd3322acU, 0xbe83d77a3db18b7dU, 0x3cab3f8d3df73b4bU, 0xbaec8ea1be50958fU,
  0xbbe91fc43b3a5cd3U, 0x3e0025aebe011433U, 0xbd111801bdb8f721U, 0x3d964a62bdbe0e95U,
  0x3d0178423d723c86U, 0x3e37b815bdcfa3a9U, 0xbd265a40bc999654U, 0xbd0910113e29362cU,
  0xbd7f34af3d64c9e2U, 0x3e2ba21abd951676U, 0x3d240c39bd00f5f9U, 0xbb83d9c3be29733fU,
  0xbd5882523d0c538aU, 0x3d3f0389bbb87373U, 0xbddf60053e0db3b9U, 0xbe41206bbd86226aU,
  0xbe15792abe0bfbe1U, 0x3db2c3033e4371aaU, 0x3e2c44223d6568dfU, 0xbc94e9d03cd446abU,
  0xbd91812d3e580dbdU, 0x3d9351833c210018U, 0x3d6f9bc63d584ee0U, 0xbd0aac703e6641eeU,
  0x3ccbec9ebd3567a1U, 0xbd914cbbbdec6e54U, 0x3d238ba9bd8de60fU, 0xbc3fd92a3d114ef0U,
  0xbd7e461ebd751c50U, 0xbd32b97fbdd8b025U, 0xbd80bcaabe5f8f32U, 0x3a7a07ce3c80b429U,
  0xbe17f9ba3d26826dU, 0x3d70b9b13e4af006U, 0x3e6624b03dccbde7U, 0xbc5990783deac63aU,
  0xbe9a53103dff5d2bU, 0xbc1f0f24bd2a025cU, 0x3d90c3583dc806bcU, 0xbcb4b2a03e46ee6bU,
  0xbc894e4abd699146U, 0xbdea80d53d38b8aaU, 0xbc4875343cd14a0cU, 0x3bbc03783de86a37U,
  0x3e4d84eabd864ac3U, 0xbe7fa986bda9b8dfU, 0xbbfcbe46bddc0267U, 0x3ddf0e833e10b357U,
  0xbd1343a6bd7ddfc7U, 0xbdd66af43d813001U, 0xbe403f213c12c4c9U, 0xbc20f1553e1c13dbU,
  0xbdde6daabd733c80U, 0xbe64c3743c84e666U, 0x3d3bc1303d857a7eU, 0x3e65a141bddd634fU,
  0x3d061644bc553fc6U, 0xbe19181b3de786dcU, 0x396ad18fbcf6a48aU, 0x3dc757fbbe1d99f5U,
  0x3dbf4ce83dab2c83U, 0xbe6b2d0d3e0bdd07U, 0x3ce5b7cc3e2c92b4U, 0x3daeaeb13d3516c4U,
  0x3e5e5a79bced638dU, 0x3dd9fb9cbe8b16ebU, 0xbe8bcb11bd82ee7bU, 0xbcf7b2d8be092366U,
  0x3cb19a0c3ce7469aU, 0x3db3ba8e3d61cc0fU, 0xbd7f744e3d52348fU, 0x3dc910c43df7c915U,
  0xbd41fdac3cdb30dcU, 0x3d173b2b3c701fddU, 0xbd808d57bd29bd8dU, 0xbd1d02ecbd97cfe3U,
  0x3da8afdfbc2bbbabU, 0xbdbbdf343cc3bde0U, 0xbe35fdd3bdbc8d24U, 0xbdef325ebdb89a20U,
  0x3cc24ad0bdcd0d69U, 0xbc5c78913e0188e6U, 0x3cf34a00be06845aU, 0xbd95334a3ddf50c6U,
  0xbe30e6e23d5ae6c2U, 0x3d59c3aebd98e1d9U, 0xbe0d4fb83dad1247U, 0x3c50b0173e20d949U,
  0x3d786d15be092b66U, 0xbd5d8b00bcb77801U, 0xbe04dc12bc81b528U, 0xbd4e14cc3c54ef5dU,
  0x3e09a750bce20628U, 0xbe014adabd7832bfU, 0xbc1db8c0be18dd00U, 0xbde483d03e392333U,
  0xbd9a15cc3b744dc7U, 0xbd91da883e1f5c64U, 0xbdc79bc63c860a68U, 0xbde545ee3e474e23U,
  0xbe6d751e3e4121b3U, 0xbd98e3433c898442U, 0xbd01951d3e848b24U, 0x3e37fcda3d19bc53U,
  0x3e3c50263bb57cb0U, 0xbdaa46823e498a2eU, 0xbd59ebbabd04668eU, 0xbc8c6a673e4b6e34U,
  0x3e42cdd13d82d604U, 0xbdec9ce23d27696dU, 0x3d7ec9f3bdf46595U, 0x3d93b9c13e7bb004U,
  0x3e1401f33d4ac001U, 0xbdc8e90bbd00cbf7U, 0xbe374bbf3bbd2acfU, 0xbd08d5e23d9567b1U,
  0xbe37afc6be191010U, 0xbe3ce8ef3d31fa3aU, 0xbd4ade99bd93b516U, 0x3d824511bd79834bU,
  0xbe499cfb3db9b26eU, 0xbad14f043e26cea7U, 0xbd7f2a083cbfcd48U, 0xbdf6bc4bbd42197eU,
  0xbe09f93d3de92b4fU, 0xbe6237e2bd27158fU, 0xbd943df73e2b01b9U, 0x3c0ce883be014d01U,
  0x3df52e63bd392b8fU, 0x3d9daf54be608ed3U, 0xbe8323033c5510d0U, 0xbc6da5fc3c2a350cU,
  0x3de575f9bd9115f3U, 0xbe2493383e76f082U, 0x3e16b448bcc37f4dU, 0x3dcea35dbdc33605U,
  0xbe16d9673c7cf7ddU, 0xbe20ddb73e62a778U, 0x3d1770763e208ca9U, 0x3dc28996bd8a321fU,
  0x3d4a273a3dbe32dbU, 0xbdd89c0e3e18f7c1U, 0x3c895f13bd4f8118U, 0x3e46f1a239b8b36aU,
  0x3d8941903e3009e4U, 0x3d46d91bbe0eb5a9U, 0xbe4b13c63ba3fdd1U, 0x3dad2186be3c6213U,
  0x3da5dc08be815410U, 0xbd39dde6bd9d7834U, 0x3d6f7af3bda402d2U, 0x3e210074bd998781U,
  0xbe761ba63c37b468U, 0xbe5d63373cc3b5c7U, 0xbd69b5b2bd946a8cU, 0xbd44f99fbcf5cc98U,
  0xbd9130b43dc52fe1U, 0xbe1bc14a3dc47841U, 0xbd7d277bbd9d9695U, 0xbc9af932bdadadfcU,
  0x3d97d07bbd982f70U, 0xbdf5c1aebd8613cdU, 0xbd61414dbd823542U, 0xbcc35f89be1ba50cU,
  0x3d4639ef3bef6a1bU, 0xbdfedef3be1f73e8U, 0xbe1e4aa0bdfc1d04U, 0x3bb3ba18be270e33U,
  0x3db1bf0dbdcc125dU, 0xbdc557b8bde23487U, 0xbd814a2cbde83456U, 0xbc8127acbe44db3eU,
  0xbe0b417dbe07b0f5U, 0x3d9edffe3dd0e4e2U, 0xbd64e83cbda53569U, 0xbcf88f023d5aa475U,
  0x3d5d5c0dbe2a2040U, 0xbe0536d9bdf4da57U, 0xbd312c8abd9e8a66U, 0xbde44a5ebe559228U,
  0x3e2bb576bd5e85abU, 0xbd8c82793defd8c7U, 0x3e1ec86b3d1cd0b8U, 0x3d55991abddda165U,
  0x3e117e653dc072ceU, 0xbbcb5693bbcf4d68U, 0x3e3d1b043d7b994dU, 0x3df28218be58b326U,
  0xbe4982653cbfb1bcU, 0x3e1229a63e24998fU, 0x3ddb0f17be215e9eU, 0x3d7bd8443abb3f3dU,
  0xbd02ee193e0e8a10U, 0xbc830f1bbd9fd46fU, 0x3b8c754c3e0e10deU, 0x3d943bf5bdbaff8fU,
  0x3e10cbb1be6b93caU, 0xbe37a7fd3d8bc765U, 0x3d121415bea2dc64U, 0x3e304277be87534dU,
  0xbe678212be048344U, 0xbe827682bcca5b14U, 0xbcff33b83d9100aeU, 0x3e05e629be4c662fU,
  0xbea8c1bdbbbcf9bfU, 0xbd3ad07b3d048d0bU, 0xbd421f5abda4e8c6U, 0xbd965fa9be9834e6U,
  0xbd28ac81bd97f099U, 0xbce2dea8be415d69U, 0xbd91756abd75338fU, 0xbd1cad98befbd97dU,
  0xbc468a3a3d577401U, 0xbe2ce039be057608U, 0xbe1e16f73c9223dfU, 0xbe0db83fbe0504b5U,
  0x3e33fdc4bdcedfa5U, 0x3dec7ff9bd1031b2U, 0xbe33a41abd974942U, 0xbdd95af0bd4e97e6U,
  0x3cce992d3be31985U, 0x3e12a6d7bc5d6b2fU, 0xbd6760aabd8d6a8aU, 0xbc0c015e3e01d284U,
  0xbd82aef9bddad5b8U, 0xbddd74bebe1952c7U, 0xbda196183c69b204U, 0xbda593f4bd9437ceU,
  0x3e3e7e4abe247c42U, 0x3d78a8213da4534eU, 0x3dd13bb3bd36ab28U, 0x3d57c105bd85d72eU,
  0x3da00ff43c1a91f5U, 0x3e03cbe8be27ef92U, 0x3e274a0b3dfb3751U, 0x3df2653abe3bf665U,
  0xbe0b471d3ba17deeU, 0x3e238e673ddcfdc8U, 0xbd800fa0be9ed693U, 0x3d634449bda1ceb3U,
  0xbe4a17133c13d004U, 0x3dd11312bd5a4c7eU, 0x3e096e633e00a171U, 0x3bfbe420be0b4745U,
  0x3e963284bd8b1f79U, 0xbde43685bdd8279cU, 0x3bc328bfbe4b7821U, 0x3d22c6dbbd6b7ee5U,
  0xbc957f50be01c6e5U, 0xbe8525ecbe4051b3U, 0xbd9c6ec5bda9bf33U, 0x3dc18f69be01154bU,
  0xbe355654be5b2adfU, 0x3ddcebe13ca3828cU, 0xbe3af1f8be576835U, 0xbd324247be570e9bU,
  0xbd9d6fa9bdaea673U, 0xbe959ad7bc429a44U, 0x3e279772bdf599bcU, 0xbdb8e758bead51bbU,
  0x3d7ed6b63debd0edU, 0xbe815026bc2c8e2cU, 0xbd3c52663dd8454cU, 0xbd454240be63c34fU,
  0x3e64ee15bdb6548fU, 0x3e0245dfbd8276f6U, 0xbe635854bdd30dc8U, 0xbbb71032bcb6decfU,
  0x3d6091a7bda88069U, 0x3e518055bd02c1d6U, 0x3dcdda06be09f264U, 0x3c1552d23e2b4a65U,
  0xbe7aab563d862a68U, 0xbd6887d9be0573f1U, 0xbe2f9cc9bd102c7cU, 0x3d065f34bd8654d9U,
  0x3d86f2a03c628adfU, 0xbd0d21b33cc90c52U, 0x3c1f5774bd9bc74aU, 0x3d36383ebd2ea8bdU,
  0x3cbd2f76be01eb81U, 0xbe3af86abd1cb134U, 0xbc6709d4bd973a00U, 0x3c9bae1abc138333U,
  0x3d8a06eebd8c6a25U, 0xbdb2c41f3d69dfc9U, 0xbd434464bd10ff16U, 0xbcf5761ebc2a64c5U,
  0xbd451de0bd640bdeU, 0xbd8f6514bd9f5659U, 0xbd50cc24bd4d2e1eU, 0x3bbc460dbc4c42acU,
  0x3e847cdcbd510d2cU, 0xbcea5478bb996f5dU, 0xbd2732a63bc6c555U, 0x3db41e62bddef1f9U,
  0x3da5579b3d993464U, 0x3decd2833de9e334U, 0x3dc88e873d1480eeU, 0x3e4d8705bdcf4281U,
  0xbd4a6f5dbb1661a6U, 0x3e310d1d3de42eadU, 0x3db2140f3db8f104U, 0x3da04fffbada7fdfU,
  0x3c879e363d9c5799U, 0x3e066969bd520cb7U, 0x3e3e1e703c170a3aU, 0x3cf8690dbd1fea63U,
  0x3dfc4dadbd0413eeU, 0x3deb28ac3daec1eaU, 0x3d470e633afd7df3U, 0xbca9ee383d9e28aeU,
  0x3d07347abc9e8749U, 0x3d66c16d3dacb4f1U, 0x3d5bbec43c68b42fU, 0x3dba65b13d74c785U,
  0x3d802a533d59c69cU, 0xbbbbd252bd0003dcU, 0x3df9aa253df271e2U, 0x3ca75d363c53a08bU,
  0xbd5e39fa3cdd0eaeU, 0x3e2151d8bd62db32U, 0x3a731b433c0d5c1bU, 0x3de28f473d17e48cU,
  0xbde125e7bc6a055eU, 0xbdecc616bdaf6196U, 0xbdb80e72bd3b3d5dU, 0xbd9edf0abd8e2bcfU,
  0x3dfb4e9cbe6b3959U, 0xbe20690cbeb56c9eU, 0xbe489b3dbd8147a4U, 0xbdb5c7893da49ddaU,
  0x3d115ce9be8afff7U, 0x3e08d021be192e9eU, 0xbd3381b4beb5c532U, 0xbca3d4763dd78be9U,
  0xbe904b3bbdcd4dfdU, 0xbeb4b930bce1193bU, 0xbde12455bdfb6d6dU, 0xbde51e853bedaa2fU,
  0xbc189df4bc84d2e9U, 0x3d9d54d73d9c7e22U, 0xbbb424ea3e0fe368U, 0x3e1544b93e370f6aU,
  0x3d828413bdc51181U, 0x3e2b61263caf7512U, 0xbc328a20bcb04cd6U, 0xbdc6626f3da446c9U,
  0x3e5b8535bdaefa91U, 0x3e0632773e4b7e64U, 0x3cbdb78bbdd12b3eU, 0x3db91faf3aa24371U,
  0x3cf336003c7c6d2bU, 0xbd9c57de3d1fb8cbU, 0x3bcafe143c827b36U, 0x3d7130803e7de9c7U,
  0x3e844953bdfb4ac6U, 0x3e386a8a3d022fa6U, 0xbcbd35f3bd9e0bd3U, 0xbe2186763e33410fU,
  0xbdfdfefdbde8952bU, 0x3d3ef247be50444aU, 0x3e1973bf3da3bdeaU, 0x3e7c96603e3c4426U,
  0x3bf83d25bda606edU, 0xbe57ac33bbd7f8bcU, 0xbe2071b6be53a9e5U, 0xbddacde6bc2787a9U,
  0xbec14cdbbd905476U, 0x3b699a273db50731U, 0x3e7890113db97868U, 0xbd0300fe3e34d8ccU,
  0xbe435bacbe8ee003U, 0xbd837cd9be3be8d5U, 0xbe25e792be03d2fbU, 0x3cf1e560bdbb1fd1U,
  0xbdddee75be035fdbU, 0xbd9fb38d3d761fa8U, 0xbe383cb5be6f52a0U, 0xbe2567233d146f1eU,
  0x3d3a4f02bd9155d0U, 0xbe0322b0be045e96U, 0xbe88cc5e3e0636faU, 0xbe6a7b18bd8d7e29U,
  0x3e1ee8bfbe17d778U, 0xbd869471be03e7ddU, 0xbe9e32fcbe8f0d1cU, 0xbe7f733fbd6a5391U,
  0xbe450f95bdc0a0bbU, 0x3e5fd320be568430U, 0xbe118bc83c919bd7U, 0xbeb02a583dba5582U,
  0xbe2d44ddbe0bf3b5U, 0xbe094753bdbd5802U, 0xbe3b236cbe5efac1U, 0xbe89a0c93e964649U,
  0x3df16e13bdf434e0U, 0xbe166f15be9b5082U, 0xbe7f34693d09c828U, 0xbe5b77cabdef027eU,
  0x3c601f39be468c55U, 0xbe234acc3dbade6cU, 0x3db3b0763b03bac1U, 0xbe66a36e3deb4a72U,
  0x3ceed7a13e084ad8U, 0x3d3df1b5bdc8ffb5U, 0xbdf6509fbd8f17fdU, 0xbebb25233d13a3d6U,
  0xbe2e61303ceb4627U, 0xbe1596b7bc9db738U, 0xbe5587c7be0ec783U, 0xbe47fbdfbc1fcf15U,
  0x3c89349ebd4ab676U, 0xbd9b947bbea097b5U, 0xbdf8173a3eb2b1e5U, 0xbdb1d599be39fd24U,
  0xbe6caa73be216f9aU, 0x3d6e896d3db77b6aU, 0x3e724affbe42d4baU, 0xbe3819b8be19fd06U,
  0xbe0a311a3a5e874bU, 0xbe4b2047bdd21cadU, 0x3d6a3d4b3d51b112U, 0xbea13efcbe8104f8U,
  0x3d18f2a4bbb88af2U, 0x3dccb4b9be1c5e3dU, 0xbcc470a8bd5c3d3eU, 0xbe17f940be77a9a6U,
  0xbe297a14bd3e9621U, 0x3e4e1dc8be6515afU, 0x3c6c03d8baba40d2U, 0xbd2594803dc12dfaU,
  0xbe4250583d9af64bU, 0x3d0795e6be4c0e10U, 0xbd1965b23d080cfaU, 0x3dfc89cabd9583f1U,
  0x3dd649e1be113209U, 0xbe8bade13cdc8b9cU, 0x3c27260bbd88f54fU, 0x3def251ebec52267U,
  0x3c46df9f3d99c9b8U, 0x3ce49581bddc2aadU, 0x3ce00c0b3e1c5b0cU, 0x3dadf1eebeb74214U,
  0xbe9dce2abd871531U, 0x3dbd3a863d3dd1abU, 0x3d0d1c2c3cf261c1U, 0x3cd06d703d903664U,
  0xbddae8f13d8b977fU, 0xbd61d147be8f394bU, 0xbc8dfd0d3d39212fU, 0x3cd894ebbeb8a4b1U,
  0xbd9311a6be1a19b0U, 0x3e11d087bd86e4a1U, 0x3dc96b67bcba3181U, 0x3cf1e9063d8c87aaU,
  0x3d8080bdbda3dbb0U, 0x3e040299be08b1e6U, 0x3df01ce33e1d5d21U, 0x3dc19b67be217838U,
  0xbe9b1ebc3b40e4faU, 0x3e3df1cbbd4e4eedU, 0x3dbe68f73c5e064dU, 0x3d84268d3d8f5608U,
  0xbe80ea013c89cc13U, 0x3e1ab9823d033967U, 0xbce21bae3e2f8832U, 0x3ce9a4f8be0cc784U,
  0xbdf218433dc52111U, 0xbe1f3fe4bd9c0afaU, 0x3b5940ac3c18dfedU, 0xbe8dea9abe7d096eU,
  0x3d7293b8bdc58ef7U, 0x3db8f0f3be20550eU, 0x3d8064c53d5ac875U, 0xbe04c9a9be93f7a2U,
  0xbd272c563d44d6c6U, 0x3df1b88ebdb2b338U, 0xbd52f0acbd9ff0e8U, 0x3c9057a53daf521eU,
  0xbed7a5523a7f011bU, 0x3d41e1a5be1d93f9U, 0xbdc6003a3d88d12dU, 0x3c9b68a0bdc2070eU,
  0x3d977f00bdd65eabU, 0xbe8ec38e3da2b472U, 0xbb34ffb5be1f1aafU, 0x3c230bd6beb5bd7aU,
  0x3d5c2ab03da79bdbU, 0xbd0f59cebd66bc1fU, 0x3cde4d093d88f25fU, 0x3df3a6c0be77f1dbU,
  0xbe61a3adbd53e1d0U, 0x3e0d20933d36f6f2U, 0x3d500fc6be210ddfU, 0x3ddc70693d59cc6bU,
  0xbd11ed89bc1fc1d9U, 0xbd227cd3beaa6fbdU, 0xbdd09a703dac2803U, 0x3de15907be248a5cU,
  0x3e315693be4cea61U, 0x3ca7f1763b97d516U, 0xbce91f72bcc43f76U, 0x3e300305bdc9f7c3U,
  0xbdaa7b5cbdeef97aU, 0x3c1dec5dbe1539c4U, 0x3cfb88ed3d697bbbU, 0x3e457d4fbce9803fU,
  0xbdcbe7cc3d2269e6U, 0x3ca0dc973a9b66e8U, 0xbd631c02be5fd393U, 0x3c7d4d28bdd897b4U,
  0x3ca396783d973424U, 0xbd5ee791bdbb26c0U, 0x3da400133d6b2ecfU, 0xbd821529bdac0bceU,
  0xbe380d7ebc8194b7U, 0xbea06a40bd7d52adU, 0x3d4e76713d6f9b0aU, 0xbe556367be8481a4U,
  0x3e57ff54bcd55676U, 0xbbce640ebe2474ddU, 0xbe30d57ebda6ca22U, 0xbe331530bda6fda5U,
  0x3dc94044bb276ab5U, 0x3e1542b3be7fa1f1U, 0xbcff02a6be7de13bU, 0x3cd085023e041cc6U,
  0xbf07d42bbc8d4569U, 0xbdb391b8be9265e4U, 0xbed3599e3cb58ae0U, 0xbcbde54dbca85a58U,
  0xbd3dd583be734f23U, 0xbec0531f3d938177U, 0xbc691c39bdbf4762U, 0x3e08ae5cbeb04a7bU,
  0x3d5e95ea3dee06ccU, 0x3c86ef88bc105b60U, 0x3bb8e57b3dbe9fb7U, 0x3e092c73beada950U,
  0xbd8d2f6f3d76a570U, 0x3e4c72103dcb4818U, 0x3e0e20e8be826fecU, 0x3d34f62d3dc1158fU,
  0x3c70b5af3d7ff2b1U, 0xbbee1256bea6a3b4U, 0xbe5c28f33ddaec4aU, 0x3d9e1c70bdbbd0e4U,
  0x3e01895dbe5dff8dU, 0xbe5c06073d87c38eU, 0xbcaf5e0abde94facU, 0x3e2a699cbe9a7b34U,
  0x3dc75e2e3dbc114aU, 0xbe1bc6723e163283U, 0x3d81db773d225b67U, 0x3e020d22be3327f8U,
  0xbc9093eabd0b9ac6U, 0xbd7d51a33e311877U, 0x3c0c2001bdc39f08U, 0xbdc642cebe038733U,
  0x3e815f663b077778U, 0xbe0e1934be8d0f79U, 0xbc2ba86abda4da03U, 0xbc8a4765bdad3e31U,
  0xbd9c9f18bd2d0a46U, 0x3debf04fba25d86cU, 0x3da10ee6bc098643U, 0x3d94ccf23d6e8c83U,
  0x3cf8189e3d37a1ddU, 0x3c3ae4043d61c7bfU, 0xbcb10eee3d07acbdU, 0xbc61bb963c970de8U,
  0x3c1242ab3df1d368U, 0xbc6d78f53dd49debU, 0x3d263ed33d3ac082U, 0xbd286e64bd9d9c55U,
  0xbc3d3d16bc156f82U, 0x3dadaabe3c3b0785U, 0xbd9bfd9a3caef7d0U, 0x3d9b1fba3b9029f2U,
  0xbdcee6c4bb5b83a1U, 0x3d33bccc3d23a9f9U, 0x3d9c80c33d8d945aU, 0x3bd2d8e3bd9f4fb1U,
  0xbd21cddbbc193864U, 0x3dd30d1d3dafcfd5U, 0x3bddb8443da21af4U, 0x3d5f17c7bd40adeaU,
  0xbc9f75443dcf6ef6U, 0xbe1e715ebd8dae0aU, 0xbcf4e42f3df60308U, 0xbc2c75a33d16eaceU,
  0x3dbc3055bd04bb62U, 0x3d70ff80bd87785dU, 0x3b73346d3dbed9f6U, 0x3dca497d3d61618dU,
  0xbd3cccddbe0ea620U, 0x3e0ce5c93d892e0bU, 0x3d283e17bd891e87U, 0xbd587a3e3cd8eb39U,
  0xbe2ed1e03dc0b429U, 0xbdac6f5cbcc75624U, 0x3b4e5ad63c601ab0U, 0x3dbd650e3d9f1f73U,
  0x3d0ccae43dc12dc7U, 0xbea12f83bbb421a4U, 0x3c7086df3e15352fU, 0x3db79987bcfbd02bU,
  0xbd9d51c33db7683cU, 0xbc4be16ebd10ce20U, 0x3d85bbef3db4f240U, 0xbc2bcedcbd03f349U,
  0xbe06e6393d0d51cfU, 0x3e0155febc87926dU, 0x3cd802a93d094b70U, 0xbd90715a3e352174U,
  0x3da7b8eebdc8bc45U, 0xbdc82432bdef5581U, 0xbe0009a33c16eccfU, 0x3d134b373d339e62U,
  0xbb5af367be1ee234U, 0xbccd3cf33b224bcaU, 0x3cc75257bea27a69U, 0xbe0e1e8e3c431aa5U,
  0xbd8ab2cdbdae0efbU, 0xbdc825fa3dd58de2U, 0x3e030d96bd5c10d7U, 0xbd7e7b0d3ddee688U,
  0xbe20f5913e15461eU, 0x3e436cfdbd35c8e6U, 0x3bf0a36d3e47f356U, 0xbdab6f8d3e5af17fU,
  0x3c295694bdec1be1U, 0x3bc67e1e3c7883e4U, 0x3ca4c3da3d8d110aU, 0xbcf3ecfc3e2a99ceU,
  0x3de59edc3d32b3c7U, 0xbde73f1bbdc427d9U, 0x3d5601cabd0f8f8aU, 0x3d1558b23e0236bcU,
  0xbd1999e8bc66ee27U, 0xbd5052923e3bdb1bU, 0x3dee328fbc1cd671U, 0xbdc02e233dfbd7ccU,
  0xbd41b65dbc09498fU, 0x3da459f7bd146bb4U, 0xbcc4924abd8e0363U, 0xbe0f1f983e0aa017U,
  0xbc29bf50be021c69U, 0xbda821b7be4d189aU, 0xbd0797523d15f11bU, 0x3d1225e4bc5c196fU,
  0x3de9fbfdbe1a8d59U, 0xbe306063bcdec038U, 0xbc847b9bbd54d96aU, 0x3acbc7a7bd5ba181U,
  0xbd9b5769bc256cf6U, 0xbe05a3993dab7651U, 0x3dffddcf3d2ee6b5U, 0xbb82b82c3e34179eU,
  0x3db8410bbea7a82dU, 0xbe7b5f66bd0100e8U, 0x3dad7d1cbe83c597U, 0x3e37fd8fbea60ef1U,
  0xbdffd46f3d73c032U, 0xbd4fa0663e5bbbffU, 0xbd860c4a3d341c85U, 0x3e076cd9be41bb1eU,
  0xbe01a51f3df02becU, 0xbe9075e63c96a98bU, 0x3d46f3843d651861U, 0xbd2e6287be2ba6c9U,
  0x3e891066bca98536U, 0x3dfef74dbe2e0469U, 0xbe396a27bd6e3519U, 0xbdb1329fbe9480ddU,
  0xbe333e87bc0fb948U, 0xbd43d0f3bd52b546U, 0xbd22d364be3470c8U, 0xbd596030bd1c0d22U,
